<pad>	0
<unk>	0
<s>	0
</s>	0
▁d	-0
on	-1
▁c	-2
er	-3
▁s	-4
▁a	-5
el	-6
▁p	-7
in	-8
en	-9
to	-10
la	-11
ta	-12
ri	-13
▁di	-14
ti	-15
re	-16
ra	-17
te	-18
li	-19
le	-20
▁e	-21
an	-22
▁del	-23
un	-24
▁i	-25
▁n	-26
▁m	-27
▁f	-28
ro	-29
si	-30
▁in	-31
zi	-32
or	-33
es	-34
ca	-35
ci	-36
he	-37
▁la	-38
om	-39
one	-40
▁un	-41
lo	-42
▁al	-43
▁il	-44
ar	-45
▁con	-46
al	-47
co	-48
▁v	-49
gi	-50
▁t	-51
qu	-52
di	-53
os	-54
men	-55
▁S	-56
do	-57
▁su	-58
▁per	-59
et	-60
zione	-61
▁che	-62
▁C	-63
va	-64
▁g	-65
▁l	-66
▁nel	-67
ma	-68
▁ri	-69
ol	-70
ia	-71
▁qu	-72
ss	-73
▁1	-74
▁L	-75
▁com	-76
▁"	-77
▁de	-78
▁I	-79
▁della	-80
po	-81
tu	-82
za	-83
▁si	-84
ono	-85
▁o	-86
no	-87
▁è	-88
▁da	-89
▁P	-90
▁M	-91
▁A	-92
is	-93
ale	-94
ter	-95
▁an	-96
oni	-97
▁se	-98
▁(	-99
gli	-100
bi	-101
ch	-102
se	-103
▁le	-104
▁pro	-105
ano	-106
vi	-107
▁ca	-108
tto	-109
mp	-110
ce	-111
ni	-112
che	-113
era	-114
so	-115
▁una	-116
tà	-117
da	-118
▁dal	-119
mi	-120
▁b	-121
tra	-122
mente	-123
▁G	-124
fi	-125
▁N	-126
▁pi	-127
pp	-128
▁re	-129
ere	-130
▁ma	-131
ve	-132
ran	-133
de	-134
na	-135
▁B	-136
mo	-137
sa	-138
ggi	-139
io	-140
▁po	-141
ina	-142
▁pre	-143
▁D	-144
ui	-145
vo	-146
▁tra	-147
▁R	-148
st	-149
▁T	-150
tan	-151
eri	-152
▁par	-153
▁so	-154
ali	-155
▁F	-156
tori	-157
bb	-158
tti	-159
▁sta	-160
▁dei	-161
▁dell	-162
▁vi	-163
ino	-164
▁19	-165
▁pa	-166
▁2	-167
ero	-168
tro	-169
con	-170
ru	-171
ine	-172
tta	-173
▁fu	-174
ente	-175
▁La	-176
▁Il	-177
ini	-178
▁ci	-179
▁V	-180
ver	-181
zza	-182
▁lo	-183
go	-184
ten	-185
▁alla	-186
tre	-187
ul	-188
▁gi	-189
ssi	-190
▁for	-191
pi	-192
▁do	-193
▁pri	-194
cc	-195
▁non	-196
▁te	-197
pa	-198
zioni	-199
▁fa	-200
▁come	-201
enti	-202
▁più	-203
ga	-204
mento	-205
ne	-206
ria	-207
▁ra	-208
sti	-209
ona	-210
▁delle	-211
gu	-212
sp	-213
enza	-214
▁sono	-215
me	-216
cia	-217
chi	-218
▁u	-219
mb	-220
ani	-221
hi	-222
▁du	-223
00	-224
uo	-225
sso	-226
tri	-227
▁E	-228
▁cos	-229
▁Nel	-230
▁ne	-231
du	-232
",	-233
▁fi	-234
▁ter	-235
▁anche	-236
ff	-237
▁h	-238
▁ques	-239
tura	-240
ene	-241
ando	-242
▁nella	-243
ven	-244
▁sul	-245
▁sp	-246
lu	-247
uni	-248
sta	-249
▁mo	-250
▁all	-251
▁me	-252
ese	-253
tali	-254
▁In	-255
rio	-256
zz	-257
▁gli	-258
),	-259
▁tu	-260
▁Ca	-261
▁suo	-262
▁ven	-263
▁comp	-264
ggio	-265
▁ad	-266
▁parte	-267
sione	-268
are	-269
ello	-270
ana	-271
um	-272
▁pos	-273
fica	-274
enta	-275
▁col	-276
▁cui	-277
ella	-278
▁sc	-279
▁Ma	-280
etto	-281
tico	-282
▁ar	-283
tica	-284
▁na	-285
▁li	-286
▁imp	-287
▁ba	-288
▁era	-289
uto	-290
ssa	-291
▁ha	-292
▁pu	-293
▁dalla	-294
▁O	-295
▁co	-296
tato	-297
gra	-298
rono	-299
▁U	-300
une	-301
us	-302
).	-303
per	-304
colo	-305
▁due	-306
▁av	-307
▁Al	-308
rin	-309
▁cor	-310
gno	-311
ele	-312
▁San	-313
▁sua	-314
▁no	-315
ge	-316
gna	-317
vano	-318
sse	-319
endo	-320
▁mi	-321
▁pres	-322
ula	-323
▁inter	-324
ur	-325
▁anni	-326
▁Le	-327
▁prima	-328
menti	-329
ren	-330
▁Pa	-331
esso	-332
▁H	-333
tte	-334
▁va	-335
▁ro	-336
bili	-337
sc	-338
essi	-339
man	-340
▁ed	-341
▁ess	-342
".	-343
ba	-344
zia	-345
▁degli	-346
fici	-347
ord	-348
▁prop	-349
▁to	-350
▁20	-351
▁app	-352
▁chi	-353
▁ste	-354
etti	-355
mpo	-356
glia	-357
sid	-358
▁ai	-359
▁mon	-360
onale	-361
lica	-362
ste	-363
▁ta	-364
tore	-365
▁ris	-366
ttu	-367
anno	-368
tter	-369
tare	-370
mula	-371
bile	-372
▁gen	-373
cco	-374
ome	-375
elli	-376
▁18	-377
ppo	-378
▁mol	-379
olo	-380
cip	-381
glio	-382
▁Si	-383
ze	-384
▁secon	-385
▁vol	-386
▁inf	-387
gni	-388
▁dopo	-389
▁men	-390
▁ti	-391
esa	-392
dio	-393
bbe	-394
▁ver	-395
lare	-396
dia	-397
▁Q	-398
cen	-399
zio	-400
▁Re	-401
età	-402
gg	-403
▁J	-404
res	-405
almente	-406
ura	-407
▁alle	-408
via	-409
▁essere	-410
▁cen	-411
anti	-412
mpi	-413
▁nuo	-414
▁X	-415
cca	-416
▁formula	-417
vol	-418
▁fe	-419
gui	-420
▁fra	-421
torio	-422
▁por	-423
▁gra	-424
erra	-425
▁secolo	-426
il	-427
▁Qu	-428
rig	-429
▁alc	-430
▁gran	-431
▁An	-432
ante	-433
ron	-434
▁3	-435
▁stato	-436
▁tro	-437
ette	-438
oltre	-439
▁nell	-440
▁succ	-441
▁terri	-442
II	-443
ttà	-444
tiva	-445
cci	-446
mm	-447
▁W	-448
▁200	-449
▁comune	-450
tru	-451
ad	-452
▁questo	-453
ela	-454
tante	-455
▁loro	-456
▁Con	-457
▁num	-458
cu	-459
bo	-460
mma	-461
gia	-462
▁K	-463
zo	-464
▁conf	-465
rante	-466
etta	-467
▁poi	-468
pera	-469
titu	-470
inis	-471
▁cir	-472
at	-473
▁stori	-474
▁dall	-475
que	-476
▁città	-477
ac	-478
tanti	-479
rie	-480
▁Se	-481
ista	-482
ulti	-483
▁prin	-484
▁at	-485
tr	-486
lan	-487
eli	-488
▁venne	-489
ena	-490
dica	-491
▁nei	-492
▁fon	-493
▁gu	-494
uta	-495
elle	-496
sto	-497
zzo	-498
▁uno	-499
inter	-500
vin	-501
ser	-502
pe	-503
gn	-504
▁Gi	-505
▁r	-506
▁Pi	-507
▁parti	-508
tili	-509
▁er	-510
▁Mar	-511
▁forma	-512
▁Mon	-513
tale	-514
chia	-515
and	-516
ché	-517
anto	-518
▁princip	-519
▁ave	-520
ane	-521
▁stra	-522
for	-523
▁contro	-524
▁dove	-525
cor	-526
▁acc	-527
▁201	-528
▁nome	-529
▁mentre	-530
▁primo	-531
▁popo	-532
▁regi	-533
▁sulla	-534
uro	-535
▁territorio	-536
org	-537
▁segui	-538
mbi	-539
sci	-540
ing	-541
tati	-542
▁os	-543
hia	-544
▁pubb	-545
▁fino	-546
▁solo	-547
▁sotto	-548
tò	-549
▁dis	-550
▁en	-551
▁ini	-552
▁("	-553
▁diver	-554
▁mar	-555
mbre	-556
▁(1	-557
ard	-558
▁nelle	-559
▁rapp	-560
▁pun	-561
▁sia	-562
▁quale	-563
▁viene	-564
ber	-565
pre	-566
ato	-567
▁dai	-568
zionale	-569
dere	-570
indi	-571
▁pers	-572
atti	-573
tivo	-574
cora	-575
▁diven	-576
der	-577
oma	-578
▁abi	-579
▁itali	-580
▁Vi	-581
▁4	-582
▁sos	-583
▁Per	-584
▁tre	-585
▁bi	-586
▁au	-587
▁Mi	-588
▁semp	-589
est	-590
▁gio	-591
eci	-592
▁altri	-593
▁lun	-594
esti	-595
omi	-596
esta	-597
▁esp	-598
erie	-599
▁conc	-600
▁quali	-601
▁ese	-602
gono	-603
ttura	-604
▁maggio	-605
▁cre	-606
tiche	-607
arono	-608
▁successi	-609
ffi	-610
ffer	-611
ingu	-612
usa	-613
▁furono	-614
▁seguito	-615
esco	-616
talia	-617
▁uni	-618
▁secondo	-619
▁stesso	-620
▁perio	-621
essa	-622
▁dire	-623
▁Lo	-624
dente	-625
onali	-626
▁mili	-627
▁Fran	-628
▁tempo	-629
▁199	-630
▁Di	-631
ck	-632
▁5	-633
vamente	-634
▁Sa	-635
▁poli	-636
▁loca	-637
ess	-638
▁chia	-639
▁dist	-640
▁quella	-641
ffici	-642
▁tor	-643
pra	-644
▁-	-645
sia	-646
▁erano	-647
▁z	-648
ratter	-649
cio	-650
▁giu	-651
▁can	-652
▁sca	-653
▁molto	-654
▁mor	-655
tin	-656
ggiun	-657
▁dello	-658
▁numero	-659
▁aveva	-660
▁So	-661
tor	-662
osto	-663
▁fin	-664
▁car	-665
▁orig	-666
sie	-667
tino	-668
van	-669
lia	-670
ell	-671
▁man	-672
▁Ba	-673
▁comuni	-674
▁hanno	-675
▁scri	-676
▁quando	-677
▁comun	-678
▁utili	-679
▁stu	-680
▁partico	-681
▁durante	-682
▁gior	-683
▁cri	-684
etro	-685
▁Com	-686
▁può	-687
▁siste	-688
ose	-689
▁risp	-690
iso	-691
gio	-692
▁comple	-693
▁ru	-694
▁provin	-695
inistra	-696
▁lavo	-697
▁Ne	-698
▁Do	-699
▁trova	-700
▁tras	-701
▁quindi	-702
▁via	-703
gione	-704
▁impor	-705
▁svi	-706
▁ga	-707
▁caratter	-708
val	-709
▁fine	-710
▁Ro	-711
▁Car	-712
▁suoi	-713
▁17	-714
▁15	-715
sizione	-716
sica	-717
▁go	-718
mpio	-719
▁Na	-720
▁Ar	-721
▁Ri	-722
▁periodo	-723
use	-724
edi	-725
mon	-726
ed	-727
lazione	-728
▁stata	-729
ccia	-730
▁ele	-731
▁alcuni	-732
▁questa	-733
▁def	-734
tten	-735
▁term	-736
arti	-737
▁quello	-738
gen	-739
-1	-740
▁guerra	-741
▁ancora	-742
sioni	-743
fia	-744
▁indi	-745
▁centro	-746
▁fami	-747
▁soci	-748
▁super	-749
elo	-750
ton	-751
▁speci	-752
▁rappres	-753
▁sopra	-754
▁cla	-755
tua	-756
▁lu	-757
vità	-758
▁paese	-759
▁svilu	-760
omen	-761
anza	-762
▁sa	-763
pu	-764
▁cer	-765
▁ser	-766
▁6	-767
▁grande	-768
▁così	-769
uti	-770
zzato	-771
denti	-772
▁circa	-773
▁costitu	-774
eo	-775
▁volta	-776
▁sco	-777
omina	-778
orto	-779
esse	-780
▁el	-781
▁Ci	-782
▁rip	-783
▁produ	-784
▁Val	-785
lmente	-786
qui	-787
▁spa	-788
mer	-789
▁dalle	-790
ghi	-791
▁Tra	-792
▁Po	-793
0,	-794
tata	-795
▁chiesa	-796
▁Li	-797
rico	-798
▁stru	-799
▁allo	-800
▁seconda	-801
▁fran	-802
anta	-803
tici	-804
mato	-805
▁verso	-806
imp	-807
▁atti	-808
▁colle	-809
feri	-810
rica	-811
▁198	-812
lla	-813
ster	-814
dre	-815
▁cal	-816
▁gru	-817
mos	-818
▁Du	-819
rato	-820
bre	-821
▁fil	-822
▁ten	-823
▁Gio	-824
lari	-825
onato	-826
▁già	-827
ha	-828
▁attra	-829
▁altre	-830
▁mis	-831
zie	-832
▁fonda	-833
▁fun	-834
▁lingu	-835
▁abb	-836
stra	-837
esi	-838
fo	-839
▁fatto	-840
▁197	-841
▁16	-842
bilità	-843
▁tutti	-844
▁ve	-845
▁ass	-846
cri	-847
▁sin	-848
mis	-849
▁sempre	-850
▁lib	-851
▁questi	-852
▁campi	-853
serva	-854
zzazione	-855
▁inizi	-856
▁deci	-857
▁sor	-858
▁edi	-859
▁Da	-860
▁reali	-861
ggia	-862
bu	-863
▁sistema	-864
cchi	-865
▁oltre	-866
tamente	-867
lio	-868
tano	-869
orma	-870
▁ac	-871
▁vo	-872
tanza	-873
▁prog	-874
smo	-875
▁Su	-876
fa	-877
▁opera	-878
▁tutta	-879
▁sud	-880
▁des	-881
▁consid	-882
vece	-883
pri	-884
▁«	-885
pen	-886
tazione	-887
▁stati	-888
▁ogni	-889
qua	-890
omo	-891
▁Fi	-892
th	-893
▁contra	-894
▁Co	-895
razione	-896
▁risul	-897
mina	-898
tando	-899
▁mu	-900
▁attraver	-901
tt	-902
▁defini	-903
▁val	-904
▁film	-905
▁quanto	-906
cato	-907
au	-908
▁rappresenta	-909
▁vita	-910
▁pubblica	-911
glie	-912
toria	-913
▁invece	-914
▁sol	-915
▁causa	-916
▁est	-917
▁cul	-918
▁esi	-919
▁poss	-920
mministra	-921
")	-922
▁Chi	-923
▁serie	-924
▁tutto	-925
▁gover	-926
▁Pro	-927
▁194	-928
▁disp	-929
▁Dal	-930
▁gener	-931
osa	-932
▁Uni	-933
ppa	-934
▁otten	-935
▁pen	-936
▁luo	-937
grafia	-938
▁modo	-939
▁ag	-940
▁inc	-941
esto	-942
▁12	-943
tivi	-944
▁possi	-945
lità	-946
▁7	-947
▁fer	-948
▁fos	-949
▁È	-950
▁aff	-951
▁De	-952
▁contin	-953
▁196	-954
tari	-955
▁Lu	-956
▁primi	-957
osta	-958
▁conte	-959
quad	-960
▁rela	-961
poca	-962
▁ric	-963
▁provincia	-964
▁sue	-965
▁rom	-966
eria	-967
▁particolare	-968
ppe	-969
osci	-970
▁nuovo	-971
tolo	-972
organi	-973
▁esempio	-974
▁segu	-975
▁14	-976
▁abitanti	-977
▁presenta	-978
▁agli	-979
▁negli	-980
▁vin	-981
▁Un	-982
tanto	-983
una	-984
ttore	-985
etri	-986
cch	-987
▁Dopo	-988
▁proprio	-989
000	-990
▁senza	-991
rsi	-992
▁posto	-993
zionali	-994
▁tradi	-995
▁medi	-996
▁Pre	-997
▁famiglia	-998
▁classi	-999
poli	-1000
▁dov	-1001
tive	-1002
vis	-1003
enze	-1004
▁Z	-1005
oli	-1006
▁passa	-1007
iore	-1008
▁prece	-1009
sieme	-1010
zzata	-1011
fer	-1012
▁Ra	-1013
▁Gran	-1014
attro	-1015
pubb	-1016
moni	-1017
meri	-1018
ggior	-1019
llo	-1020
▁però	-1021
▁raggiun	-1022
▁ben	-1023
▁sette	-1024
ume	-1025
▁anno	-1026
▁qua	-1027
pol	-1028
gh	-1029
▁9	-1030
▁scon	-1031
ea	-1032
▁inoltre	-1033
▁molti	-1034
▁lungo	-1035
▁vic	-1036
▁sti	-1037
▁zona	-1038
▁XV	-1039
▁cin	-1040
coli	-1041
ccu	-1042
sità	-1043
▁squad	-1044
stitu	-1045
▁alcune	-1046
▁considera	-1047
▁popolazione	-1048
lore	-1049
▁10	-1050
tere	-1051
▁mondo	-1052
▁italiano	-1053
▁capi	-1054
▁storia	-1055
▁cons	-1056
▁Mo	-1057
ture	-1058
▁st	-1059
bar	-1060
▁sal	-1061
▁punto	-1062
▁Roma	-1063
zzi	-1064
entale	-1065
▁13	-1066
▁natura	-1067
▁tratta	-1068
▁sci	-1069
▁vari	-1070
interno	-1071
tina	-1072
sidente	-1073
des	-1074
mata	-1075
▁proc	-1076
sero	-1077
▁ricon	-1078
▁mani	-1079
▁fo	-1080
eno	-1081
▁195	-1082
nero	-1083
ll	-1084
stru	-1085
▁Ber	-1086
▁infatti	-1087
cchia	-1088
Italia	-1089
cce	-1090
▁Gli	-1091
▁arti	-1092
▁base	-1093
▁gruppo	-1094
ghe	-1095
stica	-1096
vere	-1097
▁Ga	-1098
cità	-1099
rata	-1100
▁dice	-1101
▁192	-1102
▁servi	-1103
▁corso	-1104
▁k	-1105
isce	-1106
1,	-1107
oso	-1108
▁prof	-1109
▁presso	-1110
▁line	-1111
arsi	-1112
▁stagione	-1113
▁No	-1114
▁pubbli	-1115
▁sare	-1116
gre	-1117
trui	-1118
▁202	-1119
▁fre	-1120
rebbe	-1121
▁letter	-1122
▁tri	-1123
▁possono	-1124
▁lega	-1125
▁eff	-1126
▁entra	-1127
son	-1128
denza	-1129
▁quattro	-1130
▁Cor	-1131
teria	-1132
diale	-1133
ie	-1134
▁lingua	-1135
▁nord	-1136
▁tale	-1137
onna	-1138
2,	-1139
▁Tu	-1140
▁tec	-1141
▁ulti	-1142
gne	-1143
▁costru	-1144
▁ov	-1145
onda	-1146
▁caso	-1147
mpa	-1148
orta	-1149
▁den	-1150
▁morte	-1151
sco	-1152
▁comunale	-1153
▁arri	-1154
▁Me	-1155
▁uffici	-1156
cò	-1157
ure	-1158
_1	-1159
▁usa	-1160
lano	-1161
cento	-1162
▁Giovan	-1163
torno	-1164
▁costrui	-1165
este	-1166
▁deri	-1167
omia	-1168
▁(19	-1169
3,	-1170
▁spesso	-1171
pubblica	-1172
stello	-1173
▁sede	-1174
uc	-1175
▁op	-1176
▁diversi	-1177
▁dec	-1178
▁conse	-1179
▁spi	-1180
▁picco	-1181
▁rin	-1182
▁Ni	-1183
ttutto	-1184
ort	-1185
▁II	-1186
..	-1187
▁reli	-1188
rende	-1189
▁oggi	-1190
▁generale	-1191
ssione	-1192
4,	-1193
uzione	-1194
▁aver	-1195
cano	-1196
▁Nella	-1197
ud	-1198
▁193	-1199
▁assi	-1200
eter	-1201
▁appar	-1202
▁pia	-1203
▁otto	-1204
ttad	-1205
▁pass	-1206
▁auto	-1207
all	-1208
bbero	-1209
tture	-1210
▁Ver	-1211
gge	-1212
▁termine	-1213
8,	-1214
ori	-1215
▁Col	-1216
▁qual	-1217
▁compa	-1218
toni	-1219
▁presenza	-1220
5,	-1221
ziona	-1222
tion	-1223
▁insieme	-1224
rare	-1225
▁organi	-1226
▁persona	-1227
▁Gu	-1228
▁differ	-1229
▁far	-1230
6,	-1231
▁prodo	-1232
▁san	-1233
▁avven	-1234
mio	-1235
▁Ch	-1236
scia	-1237
rano	-1238
▁liv	-1239
ble	-1240
▁soprattutto	-1241
▁partire	-1242
dato	-1243
▁grazie	-1244
azione	-1245
▁Storia	-1246
gnifica	-1247
▁dagli	-1248
vole	-1249
▁Bo	-1250
cono	-1251
▁Secon	-1252
▁nuova	-1253
▁sen	-1254
▁Ti	-1255
vata	-1256
"),	-1257
▁Italia	-1258
▁ricor	-1259
min	-1260
urope	-1261
▁Par	-1262
uso	-1263
▁cittad	-1264
▁dedica	-1265
tana	-1266
▁Giovanni	-1267
▁Stati	-1268
7,	-1269
▁maggior	-1270
▁campo	-1271
▁mondiale	-1272
▁perché	-1273
▁Cos	-1274
▁tipo	-1275
▁sull	-1276
▁rispetto	-1277
▁elet	-1278
orti	-1279
▁Bi	-1280
▁prote	-1281
sca	-1282
trale	-1283
Uni	-1284
9,	-1285
▁propri	-1286
▁governo	-1287
stri	-1288
▁continu	-1289
sce	-1290
▁condi	-1291
den	-1292
▁significa	-1293
posi	-1294
▁nec	-1295
cese	-1296
▁diverse	-1297
eva	-1298
▁diff	-1299
▁musica	-1300
stria	-1301
▁successo	-1302
▁rius	-1303
▁principale	-1304
▁Ger	-1305
▁interna	-1306
III	-1307
▁quasi	-1308
▁Tor	-1309
chite	-1310
▁cultura	-1311
▁dicembre	-1312
▁costitui	-1313
rale	-1314
ari	-1315
trice	-1316
▁econ	-1317
dono	-1318
▁Jo	-1319
▁disc	-1320
be	-1321
ppi	-1322
lato	-1323
opera	-1324
ccupa	-1325
▁Y	-1326
▁rec	-1327
▁metà	-1328
▁svol	-1329
vento	-1330
▁collega	-1331
gine	-1332
▁Repubblica	-1333
▁porta	-1334
omin	-1335
bilmente	-1336
▁8	-1337
▁visi	-1338
▁ban	-1339
ardo	-1340
▁tutte	-1341
▁Maria	-1342
▁Non	-1343
▁proba	-1344
▁Monte	-1345
▁soli	-1346
▁docu	-1347
▁attraverso	-1348
▁situa	-1349
▁indica	-1350
▁Fa	-1351
▁mod	-1352
▁titolo	-1353
20	-1354
▁ann	-1355
essione	-1356
vato	-1357
▁rima	-1358
app	-1359
▁nove	-1360
bra	-1361
▁grandi	-1362
▁ambi	-1363
▁anti	-1364
forma	-1365
▁francese	-1366
▁caratteri	-1367
col	-1368
▁produzione	-1369
▁volte	-1370
▁Fu	-1371
▁squadra	-1372
▁luogo	-1373
▁sulle	-1374
onte	-1375
lori	-1376
▁perm	-1377
cesi	-1378
▁Bar	-1379
▁casa	-1380
▁vengono	-1381
An	-1382
ute	-1383
▁ing	-1384
▁queste	-1385
naio	-1386
▁mos	-1387
▁fosse	-1388
▁tipi	-1389
spon	-1390
▁sarebbe	-1391
▁massi	-1392
▁amministra	-1393
▁ebbe	-1394
▁limi	-1395
▁stessa	-1396
am	-1397
▁società	-1398
▁Santa	-1399
▁opere	-1400
▁ord	-1401
ologi	-1402
▁conten	-1403
▁tuttavia	-1404
▁gennaio	-1405
tario	-1406
▁teo	-1407
▁Ta	-1408
zzare	-1409
▁giov	-1410
▁Chiesa	-1411
▁divenne	-1412
▁avrebbe	-1413
▁testi	-1414
▁conta	-1415
omento	-1416
epoca	-1417
cito	-1418
▁Stato	-1419
▁pra	-1420
lar	-1421
▁For	-1422
▁forte	-1423
▁veni	-1424
ultimo	-1425
fico	-1426
lata	-1427
uno	-1428
stico	-1429
▁presenti	-1430
▁bor	-1431
▁rego	-1432
▁economi	-1433
▁giugno	-1434
▁posizione	-1435
▁civi	-1436
▁diri	-1437
▁possibile	-1438
▁bu	-1439
allo	-1440
▁rico	-1441
▁opp	-1442
▁dif	-1443
▁settembre	-1444
ziale	-1445
dici	-1446
▁strada	-1447
onia	-1448
vie	-1449
▁commer	-1450
▁luglio	-1451
ostante	-1452
▁sui	-1453
vero	-1454
▁poco	-1455
▁set	-1456
inale	-1457
▁principali	-1458
rb	-1459
▁11	-1460
▁lui	-1461
mica	-1462
lina	-1463
▁Secondo	-1464
▁conserva	-1465
tero	-1466
▁presente	-1467
veni	-1468
ann	-1469
▁stemma	-1470
▁meno	-1471
fal	-1472
iori	-1473
▁vitto	-1474
La	-1475
ccio	-1476
-19	-1477
▁propria	-1478
▁struttura	-1479
▁quelle	-1480
▁proble	-1481
deva	-1482
▁inse	-1483
▁storico	-1484
dendo	-1485
quis	-1486
ei	-1487
▁Sp	-1488
ttuale	-1489
ccol	-1490
▁affi	-1491
▁para	-1492
▁ferro	-1493
▁località	-1494
▁maggiore	-1495
zzati	-1496
prile	-1497
▁importante	-1498
▁fiume	-1499
▁En	-1500
0.	-1501
▁Durante	-1502
▁pe	-1503
ssocia	-1504
anco	-1505
sh	-1506
▁punti	-1507
area	-1508
▁progra	-1509
▁europe	-1510
▁castello	-1511
▁bo	-1512
▁sviluppo	-1513
▁sf	-1514
▁politica	-1515
cra	-1516
▁materia	-1517
logi	-1518
mico	-1519
logia	-1520
▁livello	-1521
▁riv	-1522
tar	-1523
▁tecni	-1524
▁rivol	-1525
▁191	-1526
▁sempli	-1527
▁attività	-1528
udo	-1529
cro	-1530
▁mai	-1531
▁consi	-1532
▁lettera	-1533
▁Ter	-1534
▁altro	-1535
eratore	-1536
▁mino	-1537
▁campionato	-1538
▁note	-1539
▁vennero	-1540
▁trasp	-1541
▁Questo	-1542
stenza	-1543
▁fece	-1544
▁riferi	-1545
▁“	-1546
venti	-1547
▁moder	-1548
▁studio	-1549
ficio	-1550
▁presidente	-1551
ismo	-1552
▁varia	-1553
▁marzo	-1554
▁Carlo	-1555
▁ori	-1556
bui	-1557
In	-1558
▁rice	-1559
inizio	-1560
▁riti	-1561
▁momento	-1562
tesi	-1563
evo	-1564
lazzo	-1565
▁lavoro	-1566
▁scuo	-1567
gon	-1568
▁pes	-1569
cendo	-1570
▁dip	-1571
rno	-1572
▁nazionale	-1573
cita	-1574
▁mer	-1575
▁Una	-1576
▁ospi	-1577
▁Ad	-1578
▁Go	-1579
ficazione	-1580
reto	-1581
▁Ha	-1582
▁tele	-1583
▁asse	-1584
▁XI	-1585
▁ricer	-1586
▁To	-1587
▁evi	-1588
gere	-1589
cchio	-1590
▁gui	-1591
▁Francia	-1592
▁nello	-1593
ki	-1594
etra	-1595
▁descri	-1596
▁temp	-1597
▁miglio	-1598
▁caratteris	-1599
mmi	-1600
tal	-1601
▁costruzione	-1602
cipa	-1603
altra	-1604
simo	-1605
cola	-1606
▁fron	-1607
▁rigu	-1608
▁origine	-1609
teri	-1610
▁ins	-1611
ttamente	-1612
▁indu	-1613
▁Regno	-1614
▁Giu	-1615
▁colla	-1616
▁allora	-1617
▁figlio	-1618
▁cele	-1619
▁ruolo	-1620
▁tedes	-1621
▁favo	-1622
▁Ru	-1623
rre	-1624
2.	-1625
visione	-1626
▁or	-1627
▁appro	-1628
▁gre	-1629
ciale	-1630
▁Uniti	-1631
▁atto	-1632
stro	-1633
erazione	-1634
▁giorni	-1635
▁incon	-1636
▁importanti	-1637
▁apparten	-1638
▁Inf	-1639
▁poten	-1640
▁meri	-1641
▁roman	-1642
▁frequ	-1643
▁sostitu	-1644
▁novembre	-1645
terna	-1646
Al	-1647
▁sov	-1648
▁bri	-1649
▁is	-1650
mboli	-1651
uropa	-1652
▁riman	-1653
▁grado	-1654
▁bre	-1655
omini	-1656
▁numerosi	-1657
ang	-1658
▁cro	-1659
▁locale	-1660
ucle	-1661
▁scel	-1662
dice	-1663
▁linea	-1664
▁Ale	-1665
ut	-1666
▁studi	-1667
▁persone	-1668
").	-1669
ficato	-1670
onimo	-1671
▁giorno	-1672
▁piano	-1673
▁sac	-1674
▁memb	-1675
▁fisica	-1676
dotta	-1677
▁cinque	-1678
▁terre	-1679
▁istitu	-1680
inci	-1681
dro	-1682
▁posi	-1683
tivamente	-1684
ka	-1685
▁quelli	-1686
▁pote	-1687
oro	-1688
▁sosten	-1689
▁ani	-1690
▁Milano	-1691
▁manten	-1692
▁gon	-1693
anda	-1694
▁giun	-1695
▁metri	-1696
uri	-1697
mia	-1698
vio	-1699
line	-1700
▁finale	-1701
▁dra	-1702
▁'	-1703
scri	-1704
ultima	-1705
ho	-1706
▁tar	-1707
osc	-1708
▁inizia	-1709
mano	-1710
bito	-1711
▁deter	-1712
▁ecc	-1713
▁ciò	-1714
bbra	-1715
visi	-1716
▁velo	-1717
lese	-1718
ond	-1719
▁media	-1720
▁comunità	-1721
▁figu	-1722
▁diale	-1723
▁tran	-1724
▁batta	-1725
▁Vil	-1726
▁ogg	-1727
▁molte	-1728
vò	-1729
▁resta	-1730
▁origina	-1731
eni	-1732
ati	-1733
unque	-1734
ppia	-1735
▁centrale	-1736
entemente	-1737
▁Pietro	-1738
▁specie	-1739
▁Fer	-1740
fiche	-1741
▁confer	-1742
▁denomina	-1743
▁nucle	-1744
▁precedente	-1745
mici	-1746
▁prime	-1747
versità	-1748
▁Pri	-1749
dati	-1750
ombar	-1751
▁affer	-1752
falone	-1753
Il	-1754
▁richi	-1755
mite	-1756
▁modi	-1757
vare	-1758
▁corri	-1759
▁distru	-1760
dine	-1761
▁Geo	-1762
▁aggiun	-1763
posizione	-1764
ag	-1765
▁aprile	-1766
».	-1767
▁Or	-1768
▁ottobre	-1769
▁regione	-1770
▁data	-1771
▁capo	-1772
▁quest	-1773
anni	-1774
▁gonfalone	-1775
rati	-1776
▁dato	-1777
mania	-1778
▁filo	-1779
bbraio	-1780
su	-1781
▁quel	-1782
▁compi	-1783
▁of	-1784
into	-1785
land	-1786
▁poe	-1787
▁Cri	-1788
▁stabili	-1789
gnato	-1790
▁conclu	-1791
▁Nell	-1792
▁paro	-1793
gioni	-1794
▁Anche	-1795
uncia	-1796
▁compre	-1797
▁cine	-1798
camente	-1799
isola	-1800
▁All	-1801
▁occupa	-1802
▁febbraio	-1803
▁inten	-1804
rente	-1805
arte	-1806
▁terra	-1807
▁comunque	-1808
▁avevano	-1809
▁gesti	-1810
▁agosto	-1811
▁Rom	-1812
▁Cal	-1813
▁Soci	-1814
versa	-1815
ede	-1816
▁Franc	-1817
rà	-1818
▁dimos	-1819
zzate	-1820
▁progetto	-1821
▁pla	-1822
rone	-1823
▁frazione	-1824
▁Questa	-1825
ft	-1826
▁proprietà	-1827
ide	-1828
▁dimen	-1829
mbia	-1830
▁territori	-1831
alle	-1832
isti	-1833
▁sconfi	-1834
▁numer	-1835
altro	-1836
▁gara	-1837
mar	-1838
▁strani	-1839
tini	-1840
▁successivamente	-1841
enda	-1842
data	-1843
▁simi	-1844
▁gioca	-1845
rea	-1846
ressi	-1847
▁Gra	-1848
mentale	-1849
▁state	-1850
▁consegu	-1851
ega	-1852
▁italiana	-1853
▁legg	-1854
▁dati	-1855
▁Vene	-1856
trò	-1857
▁stile	-1858
▁km	-1859
duzione	-1860
▁cio	-1861
meno	-1862
cente	-1863
▁padre	-1864
conomia	-1865
ir	-1866
▁vesco	-1867
▁interpre	-1868
▁atta	-1869
▁basa	-1870
ov	-1871
▁ide	-1872
▁III	-1873
▁corpo	-1874
▁programma	-1875
ende	-1876
▁aper	-1877
▁Man	-1878
▁varie	-1879
acc	-1880
▁and	-1881
▁Gia	-1882
▁sub	-1883
ettore	-1884
▁Geografia	-1885
com	-1886
▁funzione	-1887
▁tempera	-1888
▁legge	-1889
▁riconosci	-1890
▁genere	-1891
▁circo	-1892
▁Joh	-1893
tone	-1894
▁militare	-1895
▁Germania	-1896
mme	-1897
tate	-1898
alla	-1899
▁potere	-1900
bbi	-1901
ke	-1902
▁Cast	-1903
▁tenta	-1904
▁romana	-1905
ttori	-1906
▁min	-1907
▁parro	-1908
▁rif	-1909
▁necessa	-1910
▁–	-1911
▁Tutta	-1912
▁probabilmente	-1913
▁stan	-1914
▁ora	-1915
mani	-1916
▁ricerca	-1917
▁papa	-1918
ddi	-1919
▁autori	-1920
grafica	-1921
pro	-1922
4.	-1923
▁vista	-1924
pole	-1925
▁preci	-1926
▁processo	-1927
bri	-1928
as	-1929
arda	-1930
1.	-1931
▁Te	-1932
altà	-1933
▁superfici	-1934
▁avere	-1935
▁valle	-1936
scita	-1937
▁pubblico	-1938
▁elementi	-1939
▁villa	-1940
▁controllo	-1941
▁ultimi	-1942
▁occi	-1943
▁iso	-1944
ry	-1945
5.	-1946
▁186	-1947
ree	-1948
▁singo	-1949
▁tramite	-1950
acqua	-1951
▁Tuttavia	-1952
▁religi	-1953
3.	-1954
▁inclu	-1955
cando	-1956
onica	-1957
▁osserva	-1958
▁valore	-1959
▁informa	-1960
▁numerose	-1961
▁deriva	-1962
▁locali	-1963
gina	-1964
tema	-1965
▁bar	-1966
▁tru	-1967
▁svilupp	-1968
riera	-1969
tonio	-1970
Ar	-1971
quista	-1972
tazioni	-1973
▁versione	-1974
▁partecipa	-1975
▁cioè	-1976
▁demo	-1977
▁Sal	-1978
les	-1979
▁Sant	-1980
▁supp	-1981
bur	-1982
ico	-1983
▁conosci	-1984
▁quanti	-1985
▁bene	-1986
ccon	-1987
▁Francesco	-1988
mati	-1989
▁realtà	-1990
ris	-1991
▁distri	-1992
ger	-1993
▁spazio	-1994
str	-1995
▁risal	-1996
cazione	-1997
▁intro	-1998
luenza	-1999
dotto	-2000
isto	-2001
▁quad	-2002
▁esc	-2003
ica	-2004
zion	-2005
ler	-2006
unto	-2007
8.	-2008
▁Premio	-2009
eti	-2010
▁ren	-2011
tuato	-2012
▁inte	-2013
▁veri	-2014
▁Spa	-2015
6.	-2016
▁25	-2017
▁corrispon	-2018
▁movi	-2019
▁proveni	-2020
alli	-2021
▁occa	-2022
▁pratica	-2023
▁successivo	-2024
▁ester	-2025
▁Can	-2026
▁percor	-2027
▁Mad	-2028
▁mona	-2029
▁identi	-2030
▁pari	-2031
▁luoghi	-2032
cani	-2033
▁XX	-2034
lima	-2035
tello	-2036
uogo	-2037
ssero	-2038
mministrazione	-2039
▁proprie	-2040
▁tanto	-2041
▁battaglia	-2042
bum	-2043
▁raccon	-2044
▁capol	-2045
▁stella	-2046
tuni	-2047
▁tradizione	-2048
▁Inoltre	-2049
▁abband	-2050
ccolo	-2051
▁vittoria	-2052
▁lon	-2053
▁atte	-2054
inf	-2055
▁pilo	-2056
▁dimostra	-2057
eser	-2058
▁ovvero	-2059
▁contri	-2060
▁vide	-2061
▁nota	-2062
mana	-2063
▁massa	-2064
▁fronte	-2065
▁milioni	-2066
▁sei	-2067
Ca	-2068
▁indivi	-2069
▁div	-2070
anze	-2071
▁Mich	-2072
▁effetti	-2073
_2	-2074
schi	-2075
▁domin	-2076
ensi	-2077
▁secoli	-2078
ambi	-2079
tuniten	-2080
▁mostra	-2081
osti	-2082
▁Gre	-2083
▁ritro	-2084
▁Wil	-2085
▁asp	-2086
▁luce	-2087
▁190	-2088
▁Serie	-2089
▁noti	-2090
▁stre	-2091
sidd	-2092
telli	-2093
▁semplice	-2094
lin	-2095
▁detta	-2096
monte	-2097
ardi	-2098
iscono	-2099
ossi	-2100
▁decreto	-2101
zze	-2102
av	-2103
▁misura	-2104
anna	-2105
▁Bor	-2106
▁mesi	-2107
▁riten	-2108
missione	-2109
▁totale	-2110
ty	-2111
9.	-2112
▁Ste	-2113
mpero	-2114
mpia	-2115
▁terzo	-2116
▁statuniten	-2117
▁ni	-2118
▁ex	-2119
▁piazza	-2120
dare	-2121
▁cosidd	-2122
▁poiché	-2123
▁giorna	-2124
voli	-2125
ergia	-2126
lle	-2127
▁lan	-2128
cher	-2129
▁parla	-2130
▁quo	-2131
cì	-2132
▁mano	-2133
▁tal	-2134
▁forti	-2135
▁Ser	-2136
▁ferrovia	-2137
▁Alla	-2138
▁registra	-2139
dentale	-2140
▁manif	-2141
▁nomina	-2142
auto	-2143
▁attri	-2144
▁forze	-2145
mò	-2146
▁30	-2147
▁resid	-2148
▁intorno	-2149
▁Giuse	-2150
▁urb	-2151
▁avvi	-2152
▁cristi	-2153
onti	-2154
unità	-2155
duta	-2156
▁testa	-2157
▁Sul	-2158
7.	-2159
▁Ol	-2160
▁riferimento	-2161
▁tea	-2162
▁Au	-2163
▁Tre	-2164
▁genera	-2165
▁raccol	-2166
it	-2167
nio	-2168
▁truppe	-2169
▁collabo	-2170
tanni	-2171
▁mura	-2172
attuale	-2173
mba	-2174
cina	-2175
▁w	-2176
▁fuori	-2177
▁uomini	-2178
▁Cla	-2179
▁otti	-2180
ficata	-2181
▁Giuseppe	-2182
esp	-2183
mentare	-2184
onne	-2185
▁bra	-2186
▁pochi	-2187
11	-2188
▁forza	-2189
▁setti	-2190
tagon	-2191
▁attu	-2192
▁cel	-2193
▁Società	-2194
centra	-2195
▁ge	-2196
▁deve	-2197
▁infine	-2198
enn	-2199
useo	-2200
sio	-2201
ito	-2202
chio	-2203
▁Fra	-2204
tezza	-2205
rando	-2206
▁capa	-2207
▁capoluogo	-2208
▁servizio	-2209
▁filoso	-2210
▁scuola	-2211
car	-2212
dita	-2213
▁Dio	-2214
▁chiamato	-2215
ssand	-2216
▁applica	-2217
▁Ge	-2218
▁subito	-2219
tego	-2220
▁dest	-2221
desco	-2222
imperatore	-2223
▁alto	-2224
▁dichia	-2225
▁segna	-2226
umi	-2227
tuale	-2228
▁Ho	-2229
▁nor	-2230
▁internazionale	-2231
rigi	-2232
▁Simboli	-2233
▁rile	-2234
▁24	-2235
tito	-2236
trimoni	-2237
▁meridi	-2238
tendo	-2239
orre	-2240
▁ul	-2241
par	-2242
▁contempo	-2243
larmente	-2244
▁romano	-2245
duto	-2246
▁auton	-2247
▁detto	-2248
▁rosso	-2249
▁gruppi	-2250
▁scoper	-2251
▁piccolo	-2252
ranea	-2253
▁ripre	-2254
▁Va	-2255
▁Mol	-2256
▁peri	-2257
anzia	-2258
▁New	-2259
▁Sch	-2260
cino	-2261
▁cambia	-2262
▁Terra	-2263
▁campa	-2264
▁mare	-2265
care	-2266
▁fen	-2267
▁es	-2268
▁parrocchia	-2269
▁senso	-2270
dos	-2271
▁pur	-2272
▁Sta	-2273
lino	-2274
▁passò	-2275
▁sepa	-2276
▁noto	-2277
);	-2278
▁formazione	-2279
▁semb	-2280
▁quar	-2281
▁comba	-2282
▁teoria	-2283
▁camp	-2284
▁John	-2285
▁spos	-2286
rò	-2287
▁lascia	-2288
▁qualche	-2289
▁tedesco	-2290
zialmente	-2291
oren	-2292
unica	-2293
gue	-2294
▁collo	-2295
ssia	-2296
▁fase	-2297
▁meto	-2298
▁bianco	-2299
stiche	-2300
▁breve	-2301
ata	-2302
▁egli	-2303
▁dol	-2304
▁passato	-2305
▁lavori	-2306
▁ricev	-2307
esercito	-2308
▁pare	-2309
▁determina	-2310
▁Cen	-2311
lom	-2312
▁tempi	-2313
▁attraversa	-2314
▁simb	-2315
erto	-2316
ciò	-2317
▁Mu	-2318
▁borgo	-2319
▁associa	-2320
bbene	-2321
▁britanni	-2322
▁Bra	-2323
▁superficie	-2324
-2	-2325
▁accor	-2326
wa	-2327
▁ali	-2328
▁som	-2329
▁madre	-2330
▁risulta	-2331
versi	-2332
tur	-2333
zzur	-2334
▁fenomen	-2335
▁Fo	-2336
▁nuove	-2337
rito	-2338
▁Villa	-2339
▁ufficiale	-2340
▁numeri	-2341
ers	-2342
voluzione	-2343
▁superiore	-2344
uda	-2345
more	-2346
vendo	-2347
▁imma	-2348
ordina	-2349
▁epoca	-2350
50	-2351
▁Come	-2352
vera	-2353
▁mecc	-2354
▁sola	-2355
▁nuovi	-2356
▁eser	-2357
▁protagon	-2358
tus	-2359
▁carica	-2360
'8	-2361
▁prodotto	-2362
▁monte	-2363
▁nazionali	-2364
▁compon	-2365
▁vicino	-2366
▁infer	-2367
▁ripor	-2368
▁Alc	-2369
▁piane	-2370
▁cu	-2371
▁31	-2372
▁ipo	-2373
▁carriera	-2374
▁stelle	-2375
▁off	-2376
▁esclu	-2377
▁rete	-2378
▁riuscì	-2379
resso	-2380
reno	-2381
ziali	-2382
▁ucci	-2383
▁fare	-2384
▁condizioni	-2385
▁inglese	-2386
ts	-2387
usto	-2388
ormai	-2389
▁esa	-2390
▁utilizzato	-2391
▁potre	-2392
▁effet	-2393
vati	-2394
▁favore	-2395
▁turi	-2396
▁dallo	-2397
▁spor	-2398
▁memo	-2399
▁ponte	-2400
▁partito	-2401
▁ritorno	-2402
ja	-2403
ompa	-2404
▁Be	-2405
fe	-2406
▁Sar	-2407
cata	-2408
onico	-2409
▁trasferi	-2410
▁esist	-2411
ciali	-2412
onati	-2413
▁mezzo	-2414
ass	-2415
▁confron	-2416
▁trovano	-2417
tella	-2418
▁lasci	-2419
▁classifica	-2420
▁Cro	-2421
...	-2422
▁capitale	-2423
▁rica	-2424
_3	-2425
▁paesi	-2426
▁regno	-2427
▁equi	-2428
▁circon	-2429
▁capp	-2430
▁comprende	-2431
▁giovane	-2432
▁stazione	-2433
▁confine	-2434
▁Fed	-2435
▁faci	-2436
▁diritto	-2437
▁vet	-2438
stre	-2439
▁iniziò	-2440
▁testimoni	-2441
merica	-2442
▁resi	-2443
▁Negli	-2444
▁Ven	-2445
▁inca	-2446
▁anima	-2447
▁velocità	-2448
gato	-2449
▁Valle	-2450
▁inver	-2451
cura	-2452
▁matema	-2453
▁qui	-2454
▁cambi	-2455
▁quarti	-2456
ph	-2457
dri	-2458
▁(2	-2459
antica	-2460
rate	-2461
▁liber	-2462
▁189	-2463
▁successivi	-2464
▁principalmente	-2465
tanta	-2466
▁mini	-2467
▁suddi	-2468
▁App	-2469
▁sociali	-2470
▁membri	-2471
▁minis	-2472
▁essa	-2473
gica	-2474
▁ovest	-2475
ork	-2476
▁nonostante	-2477
▁dipen	-2478
The	-2479
▁Alessand	-2480
evale	-2481
ly	-2482
oste	-2483
▁cic	-2484
trimonio	-2485
lli	-2486
▁Bre	-2487
attività	-2488
▁ce	-2489
▁industri	-2490
▁avuto	-2491
▁Stra	-2492
ettere	-2493
▁latino	-2494
ko	-2495
vate	-2496
mare	-2497
ultura	-2498
▁dialetto	-2499
▁188	-2500
▁fed	-2501
▁Nei	-2502
orig	-2503
▁modello	-2504
▁sar	-2505
▁libera	-2506
zzano	-2507
▁inseri	-2508
▁forni	-2509
▁ameri	-2510
utto	-2511
▁ere	-2512
▁rimase	-2513
ania	-2514
▁feudo	-2515
▁seguente	-2516
▁figura	-2517
interesse	-2518
riamente	-2519
▁Paolo	-2520
ffigu	-2521
▁ormai	-2522
▁antica	-2523
ire	-2524
▁23	-2525
▁piccola	-2526
.,	-2527
▁zone	-2528
▁Comune	-2529
▁prodotti	-2530
▁pressi	-2531
umenti	-2532
▁calcio	-2533
▁problemi	-2534
▁Bu	-2535
Unione	-2536
▁dise	-2537
▁considerato	-2538
tentri	-2539
mbe	-2540
posto	-2541
ware	-2542
▁raffigu	-2543
▁possibilità	-2544
▁sorge	-2545
▁1,	-2546
entra	-2547
berto	-2548
▁distanza	-2549
▁sviluppa	-2550
▁compren	-2551
▁foto	-2552
▁caratteristiche	-2553
inato	-2554
uter	-2555
gata	-2556
rezza	-2557
andosi	-2558
gini	-2559
▁decise	-2560
▁situazione	-2561
▁sinistra	-2562
▁IV	-2563
eme	-2564
udi	-2565
▁inci	-2566
emonte	-2567
lici	-2568
dale	-2569
▁Ros	-2570
▁conti	-2571
▁casi	-2572
▁=	-2573
mità	-2574
inse	-2575
▁sovra	-2576
▁seguenti	-2577
▁21	-2578
▁Bri	-2579
▁naturale	-2580
▁essendo	-2581
vanti	-2582
▁XIX	-2583
▁Sono	-2584
vono	-2585
monia	-2586
▁settore	-2587
▁medio	-2588
▁dimensioni	-2589
▁esso	-2590
▁Lui	-2591
▁fini	-2592
bert	-2593
lub	-2594
▁movimento	-2595
bita	-2596
▁sogg	-2597
▁preval	-2598
piso	-2599
▁Dis	-2600
▁faccia	-2601
▁completamente	-2602
▁Mor	-2603
▁disco	-2604
enna	-2605
ranti	-2606
▁trib	-2607
liano	-2608
▁almeno	-2609
▁problema	-2610
inali	-2611
▁sistemi	-2612
ologia	-2613
▁Ja	-2614
▁libro	-2615
terra	-2616
uomo	-2617
▁situato	-2618
▁militari	-2619
▁partecip	-2620
Impero	-2621
ssimo	-2622
▁sito	-2623
▁vescovo	-2624
▁giovani	-2625
▁conquista	-2626
blio	-2627
▁Pu	-2628
▁Pia	-2629
▁nonché	-2630
▁Antonio	-2631
▁scienti	-2632
▁femm	-2633
anca	-2634
ssima	-2635
▁direzione	-2636
▁the	-2637
▁senti	-2638
▁elettri	-2639
dini	-2640
lamento	-2641
anis	-2642
▁domina	-2643
▁personaggio	-2644
dità	-2645
▁nascita	-2646
▁torna	-2647
eso	-2648
▁oli	-2649
▁catto	-2650
erico	-2651
▁arche	-2652
▁occasione	-2653
cana	-2654
cin	-2655
▁Quando	-2656
▁spagno	-2657
bbia	-2658
▁moglie	-2659
▁complesso	-2660
▁clima	-2661
▁essi	-2662
cenza	-2663
▁indipen	-2664
▁prese	-2665
ex	-2666
▁individu	-2667
invol	-2668
▁rapi	-2669
▁uso	-2670
▁palazzo	-2671
▁lato	-2672
▁Nord	-2673
▁chiamata	-2674
▁gioco	-2675
mate	-2676
▁dina	-2677
▁caval	-2678
▁Madonna	-2679
▁veniva	-2680
turo	-2681
▁rifi	-2682
▁condu	-2683
▁Venezia	-2684
done	-2685
▁impe	-2686
▁pubblicato	-2687
▁ispi	-2688
rastru	-2689
▁22	-2690
▁gare	-2691
▁rispetti	-2692
▁risultato	-2693
▁(18	-2694
stero	-2695
▁segre	-2696
▁signo	-2697
menta	-2698
gare	-2699
▁attorno	-2700
▁mese	-2701
▁Th	-2702
▁decen	-2703
▁vero	-2704
▁semi	-2705
▁181	-2706
▁pol	-2707
unta	-2708
▁top	-2709
▁viol	-2710
ent	-2711
coltà	-2712
▁risol	-2713
▁messa	-2714
▁norma	-2715
▁alta	-2716
stante	-2717
▁et	-2718
▁archite	-2719
▁destra	-2720
▁187	-2721
▁dominio	-2722
▁Sici	-2723
▁Parigi	-2724
▁rapporto	-2725
▁&	-2726
zzò	-2727
rema	-2728
▁maggiori	-2729
stici	-2730
▁pren	-2731
▁settentri	-2732
uttosto	-2733
▁dovuto	-2734
▁manifesta	-2735
▁lar	-2736
▁lunghe	-2737
▁on	-2738
abi	-2739
▁occidentale	-2740
▁Napoli	-2741
▁dunque	-2742
nia	-2743
▁assol	-2744
▁portò	-2745
▁agg	-2746
▁dia	-2747
miche	-2748
▁drappo	-2749
▁ottenere	-2750
▁monta	-2751
▁fir	-2752
▁concentra	-2753
▁100	-2754
▁tali	-2755
▁preve	-2756
▁nuovamente	-2757
stron	-2758
od	-2759
pia	-2760
▁insedia	-2761
▁direttamente	-2762
asse	-2763
gazione	-2764
▁bamb	-2765
▁centri	-2766
▁26	-2767
▁corte	-2768
▁Orig	-2769
▁passaggio	-2770
▁dio	-2771
▁Nonostante	-2772
▁Tri	-2773
▁decora	-2774
▁oppure	-2775
▁costre	-2776
▁codice	-2777
viso	-2778
▁impie	-2779
ai	-2780
▁posta	-2781
sale	-2782
▁antico	-2783
▁risultati	-2784
lie	-2785
▁popolo	-2786
▁amm	-2787
▁piuttosto	-2788
▁Gior	-2789
▁costituito	-2790
▁Luigi	-2791
▁scopo	-2792
▁speciali	-2793
vale	-2794
nò	-2795
▁personaggi	-2796
▁coinvol	-2797
▁ada	-2798
cale	-2799
▁italiani	-2800
usione	-2801
boli	-2802
Università	-2803
▁om	-2804
▁Ang	-2805
▁forse	-2806
erre	-2807
▁dedicata	-2808
▁atten	-2809
dard	-2810
tenza	-2811
▁forme	-2812
▁sociale	-2813
inte	-2814
▁terza	-2815
art	-2816
▁mone	-2817
▁poter	-2818
▁fisi	-2819
▁chiese	-2820
▁basso	-2821
▁bos	-2822
taria	-2823
samente	-2824
▁spetta	-2825
▁Sh	-2826
▁catego	-2827
▁aree	-2828
▁esegui	-2829
▁acca	-2830
▁complessi	-2831
gento	-2832
estra	-2833
▁conso	-2834
▁cres	-2835
▁meta	-2836
▁gro	-2837
bella	-2838
▁Men	-2839
▁corre	-2840
▁ore	-2841
▁unità	-2842
ceva	-2843
▁certo	-2844
▁conquis	-2845
▁ness	-2846
▁permette	-2847
orso	-2848
▁valori	-2849
verso	-2850
▁torre	-2851
▁Formula	-2852
▁oggetti	-2853
▁180	-2854
▁inizialmente	-2855
▁giro	-2856
▁sicu	-2857
▁esiste	-2858
▁usato	-2859
ya	-2860
▁figli	-2861
▁lunga	-2862
▁28	-2863
▁Europa	-2864
▁sé	-2865
▁meridionale	-2866
vvi	-2867
▁eventi	-2868
▁assieme	-2869
▁differenza	-2870
▁guida	-2871
ento	-2872
vali	-2873
can	-2874
▁conosc	-2875
▁confli	-2876
▁intito	-2877
▁temperatura	-2878
▁pron	-2879
mmedia	-2880
▁fasci	-2881
cche	-2882
";	-2883
▁governa	-2884
▁politico	-2885
▁imperia	-2886
▁nar	-2887
▁Castel	-2888
▁fru	-2889
▁abitato	-2890
▁elettr	-2891
mentali	-2892
alto	-2893
▁agrico	-2894
▁nucleo	-2895
Europa	-2896
▁ir	-2897
buzione	-2898
▁naturali	-2899
▁famiglie	-2900
cla	-2901
▁composto	-2902
▁Pe	-2903
▁cura	-2904
zzando	-2905
ins	-2906
▁cittadini	-2907
▁scene	-2908
cer	-2909
▁ottenne	-2910
▁pietra	-2911
ita	-2912
▁continua	-2913
issi	-2914
estro	-2915
▁diretto	-2916
▁scar	-2917
▁bandi	-2918
ora	-2919
SA	-2920
▁porto	-2921
▁adotta	-2922
cere	-2923
▁divi	-2924
mando	-2925
▁relazione	-2926
gt	-2927
▁francesi	-2928
ranza	-2929
▁simile	-2930
▁Ju	-2931
teriore	-2932
rastrutture	-2933
▁XVI	-2934
▁radio	-2935
▁quantità	-2936
▁Nor	-2937
▁scena	-2938
▁Ferra	-2939
▁Vol	-2940
estre	-2941
▁ara	-2942
▁trasporti	-2943
30	-2944
▁Cer	-2945
▁statunitense	-2946
ett	-2947
gnano	-2948
▁resto	-2949
tz	-2950
abb	-2951
▁27	-2952
▁Consi	-2953
fre	-2954
▁coper	-2955
visa	-2956
lazioni	-2957
▁notevole	-2958
▁trasforma	-2959
▁Spagna	-2960
▁blo	-2961
▁geo	-2962
▁Medio	-2963
▁provo	-2964
▁particolarmente	-2965
▁sarà	-2966
mera	-2967
▁pian	-2968
ordine	-2969
▁critica	-2970
▁venti	-2971
cati	-2972
▁risale	-2973
rebbero	-2974
▁orientale	-2975
▁Prima	-2976
ner	-2977
▁canz	-2978
▁popolare	-2979
▁archeologi	-2980
gano	-2981
▁rappresen	-2982
▁legi	-2983
▁diritti	-2984
▁Cu	-2985
dimento	-2986
▁formato	-2987
▁este	-2988
▁siano	-2989
▁materiale	-2990
cque	-2991
▁Tale	-2992
zzurro	-2993
▁antichi	-2994
▁precedenti	-2995
inta	-2996
ettivo	-2997
edizione	-2998
▁computer	-2999
▁entrambi	-3000
ficare	-3001
▁navi	-3002
mble	-3003
▁scelta	-3004
▁eli	-3005
▁ono	-3006
▁edifici	-3007
▁unico	-3008
ondo	-3009
▁185	-3010
▁prom	-3011
▁Bio	-3012
▁attribui	-3013
▁qualità	-3014
▁scom	-3015
▁famos	-3016
▁card	-3017
▁impre	-3018
▁riguarda	-3019
▁Geno	-3020
▁Questi	-3021
▁XVIII	-3022
▁potrebbe	-3023
berg	-3024
▁comporta	-3025
_4	-3026
▁volon	-3027
▁colpi	-3028
▁raggiungere	-3029
bio	-3030
bal	-3031
▁informazioni	-3032
ranno	-3033
▁coltiva	-3034
▁sess	-3035
▁tecno	-3036
▁storici	-3037
▁comando	-3038
▁invi	-3039
▁posse	-3040
▁Amministrazione	-3041
▁aere	-3042
▁Oltre	-3043
▁case	-3044
cipi	-3045
▁lago	-3046
▁sino	-3047
▁supera	-3048
▁moderna	-3049
▁pensa	-3050
▁mercato	-3051
arri	-3052
▁capacità	-3053
uito	-3054
▁proce	-3055
▁basi	-3056
▁esperi	-3057
▁Palazzo	-3058
▁simbolo	-3059
▁Lombar	-3060
golo	-3061
▁Altre	-3062
▁diffici	-3063
lati	-3064
▁Bel	-3065
erato	-3066
ccessi	-3067
grafico	-3068
▁pilota	-3069
80	-3070
Or	-3071
▁riser	-3072
▁inva	-3073
▁+	-3074
▁testo	-3075
▁fondo	-3076
stia	-3077
▁reale	-3078
ziano	-3079
▁abbia	-3080
▁29	-3081
▁Nuo	-3082
economia	-3083
▁piccoli	-3084
▁classe	-3085
▁macch	-3086
▁Monumenti	-3087
▁colore	-3088
▁scritto	-3089
▁conce	-3090
bina	-3091
▁metro	-3092
▁Torino	-3093
op	-3094
▁visto	-3095
▁sembra	-3096
▁184	-3097
▁Fili	-3098
▁sfru	-3099
▁massima	-3100
▁carattere	-3101
gico	-3102
▁Andre	-3103
▁età	-3104
ley	-3105
im	-3106
gua	-3107
▁179	-3108
▁greco	-3109
▁Er	-3110
▁disponi	-3111
gliere	-3112
▁portato	-3113
neo	-3114
▁finanzia	-3115
▁appo	-3116
nova	-3117
archi	-3118
▁Itali	-3119
▁diffi	-3120
-20	-3121
trali	-3122
onese	-3123
▁trasc	-3124
▁civile	-3125
▁figlia	-3126
▁interno	-3127
▁resti	-3128
▁costruito	-3129
roni	-3130
▁nos	-3131
▁culturale	-3132
▁squadre	-3133
gresso	-3134
":	-3135
▁né	-3136
ld	-3137
uma	-3138
edificio	-3139
▁origini	-3140
bliote	-3141
▁prepa	-3142
zan	-3143
▁prose	-3144
▁interesse	-3145
▁standard	-3146
▁oggetto	-3147
sch	-3148
▁protagonista	-3149
▁Costan	-3150
▁Mer	-3151
▁romanzo	-3152
▁eletto	-3153
▁tedeschi	-3154
struzione	-3155
gendo	-3156
▁originale	-3157
las	-3158
▁pal	-3159
Ma	-3160
▁Vitto	-3161
▁pace	-3162
▁Consiglio	-3163
▁Colle	-3164
mentazione	-3165
▁attesta	-3166
▁Marco	-3167
▁influenza	-3168
▁schi	-3169
come	-3170
▁fratello	-3171
cole	-3172
▁progressi	-3173
▁deli	-3174
tuali	-3175
▁perse	-3176
tern	-3177
volta	-3178
▁sugg	-3179
eve	-3180
damento	-3181
pica	-3182
▁tito	-3183
▁artico	-3184
▁medievale	-3185
detto	-3186
▁concessi	-3187
ong	-3188
▁appena	-3189
▁Sicilia	-3190
▁storica	-3191
dy	-3192
glior	-3193
▁difesa	-3194
▁costante	-3195
▁ger	-3196
▁importanza	-3197
istica	-3198
▁romani	-3199
tile	-3200
▁campagna	-3201
▁tema	-3202
▁termini	-3203
rali	-3204
late	-3205
erà	-3206
augu	-3207
ersi	-3208
▁Mos	-3209
▁muni	-3210
▁Campi	-3211
▁mono	-3212
▁meccani	-3213
▁psi	-3214
cella	-3215
▁accompa	-3216
▁fondata	-3217
▁raga	-3218
▁austria	-3219
▁situata	-3220
▁us	-3221
▁vuo	-3222
»,	-3223
▁Pal	-3224
tani	-3225
▁sovie	-3226
▁teatro	-3227
▁memoria	-3228
▁settentrionale	-3229
liam	-3230
amp	-3231
▁nomi	-3232
colare	-3233
▁Era	-3234
yo	-3235
▁crisi	-3236
latti	-3237
fra	-3238
▁provenienti	-3239
▁morì	-3240
▁metal	-3241
▁riusci	-3242
gnò	-3243
bil	-3244
▁parrocchiale	-3245
▁strate	-3246
▁sequ	-3247
▁maniera	-3248
int	-3249
utili	-3250
▁cap	-3251
▁Sud	-3252
▁Bal	-3253
impor	-3254
▁vanta	-3255
▁affres	-3256
▁cominci	-3257
▁integra	-3258
▁funzioni	-3259
nie	-3260
▁parole	-3261
▁acque	-3262
ppio	-3263
idea	-3264
▁mal	-3265
▁dedicato	-3266
▁percorso	-3267
▁pot	-3268
ada	-3269
▁destina	-3270
▁cosa	-3271
▁Coppa	-3272
▁Sport	-3273
▁Cultura	-3274
resta	-3275
▁fonti	-3276
▁conver	-3277
▁rimane	-3278
▁intera	-3279
ltura	-3280
▁generalmente	-3281
trici	-3282
origine	-3283
▁colori	-3284
▁Oli	-3285
▁prov	-3286
▁Giorgio	-3287
▁El	-3288
▁lavora	-3289
▁vene	-3290
Au	-3291
mozione	-3292
▁ponti	-3293
▁convin	-3294
dò	-3295
ggiato	-3296
▁vicen	-3297
onn	-3298
tuto	-3299
▁intra	-3300
sla	-3301
▁diventa	-3302
desi	-3303
▁poteva	-3304
▁[	-3305
▁riuni	-3306
iasc	-3307
mane	-3308
▁linee	-3309
▁frazioni	-3310
vile	-3311
60	-3312
▁He	-3313
▁trasfor	-3314
▁conseguenza	-3315
▁ordine	-3316
▁Biografia	-3317
▁metodo	-3318
▁chilom	-3319
▁ospita	-3320
▁immedia	-3321
▁strumenti	-3322
ambito	-3323
▁facciata	-3324
fon	-3325
archite	-3326
lievo	-3327
▁giapp	-3328
▁illu	-3329
▁collina	-3330
parti	-3331
unico	-3332
▁fanta	-3333
▁spiega	-3334
▁XIII	-3335
▁strutture	-3336
▁provinciale	-3337
▁successiva	-3338
▁XVII	-3339
▁documenti	-3340
▁tratto	-3341
▁flu	-3342
▁William	-3343
siasi	-3344
▁costa	-3345
▁stessi	-3346
▁cappella	-3347
spi	-3348
ettato	-3349
▁Genova	-3350
▁competi	-3351
▁culto	-3352
▁vie	-3353
▁corr	-3354
▁sorg	-3355
▁lotta	-3356
inti	-3357
pr	-3358
▁facendo	-3359
▁video	-3360
▁costruita	-3361
▁tedesca	-3362
▁pensi	-3363
ramente	-3364
▁inferiore	-3365
▁sopp	-3366
ker	-3367
ill	-3368
▁cond	-3369
▁gravi	-3370
renze	-3371
▁giornali	-3372
▁sinda	-3373
▁Alcuni	-3374
▁Via	-3375
▁meglio	-3376
▁musicale	-3377
▁festa	-3378
▁parola	-3379
dizione	-3380
▁soltanto	-3381
▁Gro	-3382
▁appare	-3383
▁premio	-3384
verno	-3385
▁crea	-3386
▁amp	-3387
▁femmini	-3388
▁europea	-3389
▁Alessandro	-3390
bia	-3391
trin	-3392
anche	-3393
frica	-3394
abitato	-3395
reni	-3396
▁Nelle	-3397
▁Economia	-3398
atto	-3399
▁Enrico	-3400
▁tardi	-3401
▁ripro	-3402
▁caccia	-3403
▁economica	-3404
▁diede	-3405
▁qualsiasi	-3406
lante	-3407
stanti	-3408
tel	-3409
uore	-3410
▁concor	-3411
▁Altri	-3412
▁torrente	-3413
dina	-3414
▁rapporti	-3415
▁dieci	-3416
▁episo	-3417
▁soldati	-3418
sk	-3419
▁fenomeno	-3420
▁album	-3421
antico	-3422
▁Infrastrutture	-3423
▁Ces	-3424
▁Parti	-3425
▁nacque	-3426
und	-3427
cali	-3428
▁XII	-3429
Le	-3430
▁piccole	-3431
enne	-3432
esistenza	-3433
retto	-3434
mentari	-3435
imma	-3436
▁inaugu	-3437
▁Pol	-3438
bbli	-3439
▁servizi	-3440
▁toponimo	-3441
vista	-3442
▁ridu	-3443
quisi	-3444
▁fossero	-3445
uale	-3446
▁Ka	-3447
onare	-3448
▁conn	-3449
bro	-3450
▁impi	-3451
sponsa	-3452
▁incontra	-3453
▁vali	-3454
▁proto	-3455
▁succe	-3456
▁miglior	-3457
ok	-3458
tù	-3459
▁documento	-3460
alisi	-3461
▁lingue	-3462
▁venivano	-3463
ulla	-3464
▁York	-3465
ccessivamente	-3466
▁The	-3467
▁fanno	-3468
▁Cre	-3469
isa	-3470
▁colo	-3471
▁ossia	-3472
▁contemporanea	-3473
nel	-3474
rov	-3475
▁Cha	-3476
▁sconfitta	-3477
intera	-3478
tena	-3479
dal	-3480
cal	-3481
▁Je	-3482
▁raff	-3483
▁affron	-3484
ccup	-3485
ppone	-3486
▁ana	-3487
▁presto	-3488
▁sebbene	-3489
▁spe	-3490
▁necessi	-3491
▁definitivamente	-3492
▁metropoli	-3493
como	-3494
tanze	-3495
▁acquis	-3496
▁1.	-3497
▁mina	-3498
▁ebre	-3499
▁difficoltà	-3500
▁50	-3501
▁confronti	-3502
▁2,	-3503
▁retro	-3504
▁Medi	-3505
▁esten	-3506
▁VI	-3507
nale	-3508
▁minore	-3509
▁relativa	-3510
ftware	-3511
dotti	-3512
▁Wa	-3513
vesti	-3514
▁pianta	-3515
elabo	-3516
▁disa	-3517
▁piani	-3518
70	-3519
▁ciasc	-3520
golare	-3521
▁Mc	-3522
▁responsa	-3523
▁rispettivamente	-3524
azia	-3525
▁antiche	-3526
▁Federico	-3527
▁quell	-3528
▁Bene	-3529
▁sepol	-3530
▁creazione	-3531
turi	-3532
gnata	-3533
▁piedi	-3534
geno	-3535
▁acqua	-3536
▁realizzato	-3537
▁regionale	-3538
▁bron	-3539
▁Due	-3540
▁sarebbero	-3541
▁invia	-3542
▁insta	-3543
▁diffusione	-3544
duti	-3545
mazione	-3546
fano	-3547
▁distingu	-3548
▁cittadina	-3549
▁ries	-3550
▁utilizzata	-3551
▁Successivamente	-3552
▁Fin	-3553
▁ritor	-3554
▁quarto	-3555
▁ebra	-3556
▁regioni	-3557
vor	-3558
▁azi	-3559
▁donne	-3560
▁tradizionale	-3561
▁fabb	-3562
▁svolge	-3563
demia	-3564
▁animali	-3565
aci	-3566
▁maschi	-3567
▁professi	-3568
onata	-3569
▁trattato	-3570
raneo	-3571
▁industriale	-3572
▁politiche	-3573
▁nu	-3574
dute	-3575
▁strade	-3576
▁alterna	-3577
▁commerciali	-3578
indu	-3579
orse	-3580
▁Casa	-3581
▁lum	-3582
▁viaggio	-3583
▁interessa	-3584
▁iscri	-3585
▁XIV	-3586
▁fan	-3587
riano	-3588
terno	-3589
▁terreno	-3590
▁Medioevo	-3591
▁tecnica	-3592
uli	-3593
enziale	-3594
▁massimo	-3595
▁personale	-3596
▁dare	-3597
▁vera	-3598
▁energia	-3599
anne	-3600
rire	-3601
▁futuro	-3602
▁avrebbero	-3603
▁Grande	-3604
▁Archite	-3605
▁televisi	-3606
▁olimpi	-3607
▁conflitto	-3608
▁economico	-3609
▁Nove	-3610
gos	-3611
▁troppo	-3612
▁vicina	-3613
usi	-3614
erop	-3615
▁chilometri	-3616
ciano	-3617
▁bassa	-3618
▁necessario	-3619
▁mole	-3620
▁idro	-3621
▁inizio	-3622
▁giusti	-3623
▁confini	-3624
▁Ris	-3625
vando	-3626
▁Br	-3627
10	-3628
▁donna	-3629
▁Ben	-3630
organizzazione	-3631
▁candi	-3632
▁conos	-3633
▁parco	-3634
▁concetto	-3635
lora	-3636
▁elezioni	-3637
▁realizzazione	-3638
Pa	-3639
▁esclusi	-3640
▁entrò	-3641
▁ricostr	-3642
▁gestione	-3643
▁anch	-3644
▁Camp	-3645
▁cinemato	-3646
▁scuole	-3647
▁imperiale	-3648
▁caduta	-3649
dite	-3650
▁personali	-3651
▁funziona	-3652
▁dom	-3653
▁napole	-3654
▁presta	-3655
▁fondazione	-3656
riche	-3657
▁Ai	-3658
autore	-3659
▁tecniche	-3660
sili	-3661
▁ecce	-3662
▁fol	-3663
accia	-3664
▁Firenze	-3665
▁traccia	-3666
▁ato	-3667
ves	-3668
▁denominazione	-3669
tun	-3670
logo	-3671
▁usci	-3672
▁tentativo	-3673
▁Del	-3674
▁legno	-3675
▁cinema	-3676
▁civili	-3677
▁statale	-3678
▁ufficiali	-3679
▁fal	-3680
▁sfi	-3681
▁Gen	-3682
▁cur	-3683
▁fuo	-3684
ttocento	-3685
ssociazione	-3686
cle	-3687
▁Museo	-3688
fera	-3689
▁assa	-3690
▁coloni	-3691
volo	-3692
▁Porto	-3693
▁ordina	-3694
▁Mal	-3695
moto	-3696
▁carb	-3697
wi	-3698
dier	-3699
▁significato	-3700
vel	-3701
▁fondamentale	-3702
▁monu	-3703
▁popolazioni	-3704
▁antro	-3705
crizione	-3706
ws	-3707
▁neo	-3708
▁sfrutta	-3709
mpre	-3710
ardia	-3711
▁musi	-3712
esca	-3713
▁libero	-3714
▁vir	-3715
andi	-3716
▁scrisse	-3717
len	-3718
▁rifle	-3719
tidi	-3720
San	-3721
▁moto	-3722
eb	-3723
▁visita	-3724
▁Qui	-3725
▁eserci	-3726
▁Bro	-3727
▁pat	-3728
▁letteratura	-3729
din	-3730
▁sche	-3731
zano	-3732
▁conto	-3733
vamento	-3734
▁notte	-3735
▁verde	-3736
pressione	-3737
sal	-3738
▁disputa	-3739
▁circ	-3740
album	-3741
▁ufficialmente	-3742
▁Nazionale	-3743
▁corrente	-3744
tera	-3745
ward	-3746
scente	-3747
▁commerciale	-3748
▁Sac	-3749
▁Santo	-3750
dra	-3751
▁Emi	-3752
▁nominato	-3753
▁azzurro	-3754
inità	-3755
▁stampa	-3756
▁linguaggio	-3757
▁simili	-3758
▁Hu	-3759
▁principio	-3760
▁matematica	-3761
▁religiose	-3762
▁imm	-3763
estate	-3764
▁maggioranza	-3765
cate	-3766
▁vinse	-3767
▁Is	-3768
degna	-3769
▁raccolta	-3770
▁distribuzione	-3771
enso	-3772
▁recu	-3773
▁emer	-3774
▁diretta	-3775
▁bandiera	-3776
▁Super	-3777
▁cambio	-3778
uali	-3779
▁particolari	-3780
ggiare	-3781
▁buona	-3782
▁composi	-3783
▁Paesi	-3784
▁composta	-3785
▁sicurezza	-3786
▁org	-3787
▁prende	-3788
entali	-3789
del	-3790
▁Jac	-3791
▁avesse	-3792
▁regista	-3793
▁Sc	-3794
▁discip	-3795
▁motivo	-3796
ghil	-3797
▁Ciò	-3798
teriori	-3799
▁regime	-3800
AT	-3801
▁dollari	-3802
onio	-3803
▁riprese	-3804
▁record	-3805
ghilterra	-3806
argento	-3807
▁ottenuto	-3808
▁presti	-3809
▁Origini	-3810
veri	-3811
▁libertà	-3812
▁nega	-3813
blioteca	-3814
ons	-3815
_5	-3816
▁estra	-3817
gro	-3818
▁conosciuto	-3819
▁Lond	-3820
▁Sco	-3821
▁prosp	-3822
enato	-3823
▁batter	-3824
▁neu	-3825
▁creare	-3826
enzia	-3827
lt	-3828
rca	-3829
▁Nello	-3830
▁magne	-3831
▁mediante	-3832
▁Stu	-3833
▁Batti	-3834
landese	-3835
▁alb	-3836
40	-3837
▁Ges	-3838
▁2000	-3839
arco	-3840
▁scala	-3841
▁caratterizzato	-3842
ricoltura	-3843
▁Cristo	-3844
▁distribui	-3845
▁Filippo	-3846
gobar	-3847
▁sali	-3848
▁Ve	-3849
▁doveva	-3850
celli	-3851
▁deca	-3852
▁trasm	-3853
▁sopravvi	-3854
▁trovare	-3855
▁Costantino	-3856
▁nero	-3857
▁costi	-3858
."	-3859
▁crescita	-3860
▁influ	-3861
gegn	-3862
▁Castello	-3863
▁ministro	-3864
▁software	-3865
▁lunghezza	-3866
▁Tom	-3867
▁feste	-3868
mise	-3869
▁Tea	-3870
ansione	-3871
mu	-3872
▁collaborazione	-3873
▁Partito	-3874
▁Sardegna	-3875
):	-3876
let	-3877
occupa	-3878
▁leggi	-3879
omet	-3880
by	-3881
▁utilizza	-3882
▁organizza	-3883
▁monastero	-3884
arrivo	-3885
▁Pla	-3886
▁patri	-3887
devano	-3888
▁componenti	-3889
tituzione	-3890
BA	-3891
▁fatti	-3892
▁occup	-3893
▁compreso	-3894
▁Loren	-3895
▁dovette	-3896
▁Ori	-3897
lico	-3898
▁statua	-3899
▁posti	-3900
genza	-3901
▁Char	-3902
energia	-3903
▁avviene	-3904
▁davanti	-3905
▁lettere	-3906
▁attualmente	-3907
▁costituita	-3908
▁Queste	-3909
ttempo	-3910
ndo	-3911
.000	-3912
▁cellu	-3913
▁Ce	-3914
▁Sole	-3915
▁frattempo	-3916
orge	-3917
ressione	-3918
mor	-3919
nato	-3920
ovest	-3921
burgo	-3922
▁183	-3923
dimenti	-3924
▁edizione	-3925
▁armi	-3926
ccato	-3927
▁glo	-3928
▁artisti	-3929
▁straniere	-3930
▁Svi	-3931
stente	-3932
▁evitare	-3933
▁anzi	-3934
▁richia	-3935
▁40	-3936
▁rivista	-3937
▁tabella	-3938
ranze	-3939
mann	-3940
gante	-3941
▁sensi	-3942
fficiente	-3943
▁prevalentemente	-3944
▁cata	-3945
▁Michele	-3946
▁addi	-3947
▁conoscenza	-3948
▁Gar	-3949
▁coppia	-3950
▁autore	-3951
▁afferma	-3952
19	-3953
onima	-3954
▁torneo	-3955
▁principe	-3956
▁2010	-3957
tuario	-3958
titudine	-3959
▁pertanto	-3960
ux	-3961
estival	-3962
▁Novecento	-3963
▁inn	-3964
▁strumento	-3965
vid	-3966
ment	-3967
dersi	-3968
▁migliori	-3969
▁modelli	-3970
▁libri	-3971
▁disposi	-3972
mone	-3973
▁rapida	-3974
inten	-3975
tional	-3976
ung	-3977
▁reper	-3978
▁Mac	-3979
▁categoria	-3980
▁Tren	-3981
▁pianeta	-3982
sali	-3983
risto	-3984
gnare	-3985
▁costruire	-3986
▁Giacomo	-3987
▁definizione	-3988
▁band	-3989
▁Napole	-3990
▁rientra	-3991
▁considerata	-3992
▁isole	-3993
▁avvenne	-3994
▁Cin	-3995
▁difficile	-3996
lesia	-3997
▁costretto	-3998
gati	-3999
▁Gal	-4000
malmente	-4001
▁legato	-4002
▁interess	-4003
▁stranieri	-4004
▁rifor	-4005
▁scoperta	-4006
asp	-4007
▁desid	-4008
▁°	-4009
ettare	-4010
▁bal	-4011
▁discu	-4012
▁Santi	-4013
cero	-4014
mini	-4015
▁ebrei	-4016
ans	-4017
▁Spi	-4018
▁rivela	-4019
▁danni	-4020
▁operazioni	-4021
inò	-4022
aper	-4023
▁Architetture	-4024
erti	-4025
▁celeb	-4026
▁speri	-4027
anese	-4028
▁popolari	-4029
sile	-4030
▁vinci	-4031
cs	-4032
▁2008	-4033
▁Piemonte	-4034
gene	-4035
▁pala	-4036
gliano	-4037
▁motore	-4038
▁Papa	-4039
▁duca	-4040
▁trono	-4041
ingresso	-4042
25	-4043
▁Gui	-4044
▁cora	-4045
mbo	-4046
▁lei	-4047
incen	-4048
▁biso	-4049
essore	-4050
Li	-4051
▁trasfer	-4052
▁Bern	-4053
▁ab	-4054
▁elemento	-4055
intero	-4056
▁ciclo	-4057
▁rifu	-4058
▁regola	-4059
▁minoranze	-4060
▁previs	-4061
▁uomo	-4062
▁decenni	-4063
▁2009	-4064
▁Alle	-4065
▁Augu	-4066
▁cerca	-4067
biettivo	-4068
ddo	-4069
▁condanna	-4070
dor	-4071
▁pr	-4072
pposizione	-4073
▁Alb	-4074
▁celebre	-4075
'11	-4076
cchie	-4077
▁definito	-4078
▁differenti	-4079
mere	-4080
▁giudi	-4081
▁Giochi	-4082
16	-4083
wn	-4084
▁Poli	-4085
▁Russia	-4086
▁passare	-4087
▁materiali	-4088
▁/	-4089
itori	-4090
▁femminile	-4091
_6	-4092
▁stava	-4093
▁avanza	-4094
▁sera	-4095
ggere	-4096
▁amici	-4097
▁sport	-4098
lando	-4099
telle	-4100
▁prova	-4101
▁membro	-4102
▁consenti	-4103
▁effettua	-4104
▁Wi	-4105
▁dep	-4106
zzera	-4107
diali	-4108
▁dista	-4109
▁vinto	-4110
▁residenti	-4111
▁vecchio	-4112
siede	-4113
▁dietro	-4114
▁Min	-4115
▁Vis	-4116
▁falli	-4117
▁nobili	-4118
▁Sil	-4119
dette	-4120
▁potenza	-4121
mora	-4122
▁pelli	-4123
▁file	-4124
nali	-4125
America	-4126
gure	-4127
non	-4128
▁assun	-4129
▁Lombardia	-4130
▁Vittorio	-4131
▁municip	-4132
▁commercio	-4133
cuzione	-4134
▁trasporto	-4135
▁attuale	-4136
gr	-4137
▁acco	-4138
▁dirig	-4139
▁esti	-4140
▁archi	-4141
▁grave	-4142
varono	-4143
▁rinven	-4144
▁introdu	-4145
elet	-4146
▁minori	-4147
▁blu	-4148
▁digi	-4149
▁periodi	-4150
12	-4151
▁Sempre	-4152
▁matrimonio	-4153
▁Bru	-4154
Ottocento	-4155
assi	-4156
▁nazi	-4157
▁singolo	-4158
▁Giappone	-4159
▁comunicazione	-4160
pubbli	-4161
▁Conte	-4162
rit	-4163
▁divisione	-4164
▁Londra	-4165
gnia	-4166
▁girone	-4167
▁villaggio	-4168
▁forn	-4169
▁quotidi	-4170
▁riporta	-4171
▁Mona	-4172
▁Cana	-4173
▁bronzo	-4174
▁resistenza	-4175
▁consa	-4176
vante	-4177
▁Ed	-4178
omeo	-4179
volmente	-4180
▁emi	-4181
▁Comi	-4182
▁adatta	-4183
veva	-4184
ettendo	-4185
▁Nicola	-4186
▁Poi	-4187
▁Grazie	-4188
▁Fri	-4189
▁Lin	-4190
▁Sci	-4191
▁durata	-4192
▁2011	-4193
▁2006	-4194
▁utilizzati	-4195
▁documen	-4196
▁direttore	-4197
vazione	-4198
▁trovava	-4199
ggiore	-4200
▁Dante	-4201
▁Torre	-4202
▁piante	-4203
▁avvenuta	-4204
▁bru	-4205
▁Et	-4206
▁elimina	-4207
▁varietà	-4208
ant	-4209
ffa	-4210
▁Cala	-4211
▁beni	-4212
▁narra	-4213
ple	-4214
▁Napoleone	-4215
90	-4216
▁malatti	-4217
gimento	-4218
▁club	-4219
▁meda	-4220
▁appari	-4221
▁voce	-4222
▁riforma	-4223
▁rende	-4224
▁estrema	-4225
▁sole	-4226
▁oro	-4227
▁vede	-4228
▁supporto	-4229
ney	-4230
otto	-4231
insieme	-4232
loma	-4233
▁Savo	-4234
gnati	-4235
aria	-4236
▁Fe	-4237
▁perf	-4238
▁j	-4239
vanta	-4240
▁certa	-4241
▁scritta	-4242
▁dimin	-4243
▁Infatti	-4244
▁necessità	-4245
▁giallo	-4246
scono	-4247
ttiva	-4248
▁fonte	-4249
▁pensiero	-4250
▁contatto	-4251
▁von	-4252
▁rifer	-4253
fri	-4254
▁rea	-4255
▁Ferrari	-4256
ot	-4257
tagna	-4258
▁vicin	-4259
▁garanti	-4260
00,	-4261
dova	-4262
▁creato	-4263
▁poche	-4264
▁micro	-4265
▁Pio	-4266
▁cinqu	-4267
▁simboli	-4268
15	-4269
ces	-4270
arlo	-4271
sche	-4272
ua	-4273
bel	-4274
▁Bolo	-4275
▁soluzione	-4276
▁Fre	-4277
▁motivi	-4278
▁umani	-4279
▁Interna	-4280
▁Paese	-4281
sion	-4282
▁Bos	-4283
▁leg	-4284
conti	-4285
▁quartiere	-4286
ara	-4287
arca	-4288
guerra	-4289
▁parall	-4290
giana	-4291
▁consu	-4292
▁passo	-4293
egli	-4294
ssol	-4295
forte	-4296
celle	-4297
cre	-4298
▁cast	-4299
▁Imp	-4300
▁Capo	-4301
immagine	-4302
▁contiene	-4303
gate	-4304
▁Teo	-4305
▁partita	-4306
▁pubblici	-4307
anz	-4308
▁aperto	-4309
ham	-4310
▁Prin	-4311
▁indipendente	-4312
▁fuoco	-4313
▁2007	-4314
equi	-4315
▁2004	-4316
▁faceva	-4317
▁Tur	-4318
▁ricorda	-4319
▁giocatori	-4320
▁ugu	-4321
ciato	-4322
▁campani	-4323
▁pericolo	-4324
yn	-4325
▁rilievo	-4326
▁Terri	-4327
▁europeo	-4328
dr	-4329
istiche	-4330
▁dialetti	-4331
▁richiesta	-4332
▁comand	-4333
▁costituisce	-4334
bato	-4335
lesi	-4336
altare	-4337
▁fum	-4338
▁filosofia	-4339
▁team	-4340
▁tracce	-4341
▁caratteristica	-4342
▁Giro	-4343
ggiata	-4344
▁0	-4345
▁metropolitana	-4346
▁fortemente	-4347
▁incor	-4348
ttivo	-4349
onde	-4350
▁costo	-4351
▁restaura	-4352
▁ado	-4353
▁doppia	-4354
▁posizioni	-4355
anzi	-4356
▁spo	-4357
▁religione	-4358
▁pubblicazione	-4359
▁minuti	-4360
▁Martino	-4361
▁indicare	-4362
▁multi	-4363
▁Des	-4364
▁insi	-4365
▁scritti	-4366
▁studiosi	-4367
ordo	-4368
sano	-4369
▁sposta	-4370
Austria	-4371
▁continuò	-4372
eta	-4373
▁vitti	-4374
▁principi	-4375
▁scompar	-4376
▁tuttora	-4377
dda	-4378
ipo	-4379
glione	-4380
ustra	-4381
▁corsa	-4382
▁discen	-4383
▁scrittore	-4384
cli	-4385
▁ang	-4386
onici	-4387
▁miglia	-4388
▁gol	-4389
dì	-4390
▁bol	-4391
sì	-4392
bus	-4393
▁storie	-4394
grazione	-4395
▁migliore	-4396
▁frequenta	-4397
renta	-4398
▁Romano	-4399
▁ber	-4400
mpie	-4401
▁ebbero	-4402
▁appunto	-4403
▁sezione	-4404
gie	-4405
▁superiori	-4406
mbro	-4407
amministrazione	-4408
▁combina	-4409
▁gas	-4410
SI	-4411
ks	-4412
▁aggre	-4413
▁tornò	-4414
▁pianura	-4415
▁consiste	-4416
▁0,	-4417
▁later	-4418
▁successive	-4419
gente	-4420
▁comme	-4421
▁decisione	-4422
▁rivolta	-4423
▁Cara	-4424
▁Sette	-4425
▁Mentre	-4426
▁ipotesi	-4427
▁semplicemente	-4428
▁esse	-4429
▁legata	-4430
▁sorta	-4431
▁Berlino	-4432
▁termina	-4433
▁Win	-4434
▁sale	-4435
▁2005	-4436
tane	-4437
▁annuncia	-4438
▁At	-4439
▁em	-4440
▁tur	-4441
▁completa	-4442
▁edificio	-4443
ling	-4444
endosi	-4445
▁risalente	-4446
ate	-4447
▁immagini	-4448
▁politici	-4449
▁reti	-4450
rima	-4451
razioni	-4452
▁concesso	-4453
▁entrambe	-4454
ssimi	-4455
▁fatta	-4456
▁Jam	-4457
▁alp	-4458
▁ottiene	-4459
dano	-4460
▁obbli	-4461
dese	-4462
essero	-4463
▁contrario	-4464
iste	-4465
▁Calcio	-4466
▁progetti	-4467
▁questione	-4468
lib	-4469
▁cielo	-4470
▁volontà	-4471
lui	-4472
▁pas	-4473
▁museo	-4474
▁possesso	-4475
industria	-4476
▁avendo	-4477
▁radica	-4478
▁partenza	-4479
▁diploma	-4480
▁Apple	-4481
▁alcun	-4482
▁riguard	-4483
▁estende	-4484
▁Cle	-4485
▁cl	-4486
mine	-4487
utato	-4488
astanza	-4489
erali	-4490
▁espon	-4491
▁vittorie	-4492
▁desi	-4493
▁statu	-4494
agricoltura	-4495
▁giapponese	-4496
▁partite	-4497
▁Tro	-4498
zionato	-4499
▁macchina	-4500
▁Leone	-4501
▁carta	-4502
▁Fino	-4503
ttanta	-4504
▁Ferro	-4505
▁corona	-4506
atta	-4507
tio	-4508
▁nasce	-4509
▁pressione	-4510
elmo	-4511
▁Lan	-4512
▁reso	-4513
▁autorità	-4514
▁maggiormente	-4515
▁Savoia	-4516
▁cittadino	-4517
vita	-4518
▁ghia	-4519
▁generali	-4520
▁pale	-4521
▁interro	-4522
utilizzo	-4523
▁fusione	-4524
▁leggenda	-4525
gitto	-4526
▁profonda	-4527
ore	-4528
▁2001	-4529
zionalmente	-4530
▁famoso	-4531
▁SS	-4532
▁Bol	-4533
▁conci	-4534
▁esistono	-4535
▁fiori	-4536
▁contribu	-4537
▁Campo	-4538
▁bizan	-4539
▁province	-4540
▁arriva	-4541
▁fondato	-4542
▁VII	-4543
▁bambini	-4544
▁sviluppato	-4545
▁piloti	-4546
▁Spe	-4547
▁entro	-4548
▁onore	-4549
▁Etnie	-4550
▁dando	-4551
▁bio	-4552
▁arrivò	-4553
alta	-4554
▁Rocca	-4555
cus	-4556
gin	-4557
▁diventare	-4558
▁abbastanza	-4559
▁2015	-4560
▁feuda	-4561
▁Città	-4562
▁ultime	-4563
Re	-4564
canti	-4565
▁vege	-4566
▁risali	-4567
operazione	-4568
▁2012	-4569
▁Romani	-4570
▁missione	-4571
rag	-4572
▁costrin	-4573
▁fratelli	-4574
▁visibile	-4575
erio	-4576
▁disposizione	-4577
▁modu	-4578
ardino	-4579
tudine	-4580
manu	-4581
▁protezione	-4582
▁march	-4583
toriale	-4584
▁Comunità	-4585
▁flo	-4586
▁consider	-4587
▁Lorenzo	-4588
▁consiglio	-4589
▁quota	-4590
▁contesto	-4591
▁domen	-4592
ader	-4593
ramento	-4594
rittura	-4595
▁stadio	-4596
▁mantenere	-4597
▁elabo	-4598
▁FI	-4599
▁Gol	-4600
▁rep	-4601
▁poeta	-4602
otti	-4603
▁lati	-4604
▁moda	-4605
▁lista	-4606
▁finali	-4607
75	-4608
orme	-4609
▁riesce	-4610
▁sovrano	-4611
▁Tol	-4612
ttò	-4613
utare	-4614
lice	-4615
▁cosiddetto	-4616
▁Wal	-4617
▁comin	-4618
▁rivel	-4619
▁perman	-4620
ordi	-4621
terni	-4622
▁Unito	-4623
▁Provin	-4624
Pi	-4625
▁bombar	-4626
▁presid	-4627
▁ritiro	-4628
▁borg	-4629
▁Dalla	-4630
rana	-4631
rori	-4632
▁ero	-4633
▁Rosa	-4634
▁Battista	-4635
86	-4636
OS	-4637
▁santo	-4638
▁cominciò	-4639
▁scio	-4640
De	-4641
▁Gesù	-4642
▁accordo	-4643
▁segn	-4644
▁investi	-4645
▁raggiunto	-4646
utò	-4647
▁composizione	-4648
▁segno	-4649
gom	-4650
logie	-4651
▁Egli	-4652
▁proi	-4653
▁schia	-4654
erati	-4655
▁reazione	-4656
▁pubblicata	-4657
▁Edi	-4658
▁subì	-4659
▁portare	-4660
▁affreschi	-4661
▁recente	-4662
▁campione	-4663
▁storiche	-4664
▁cattolica	-4665
bbio	-4666
▁privata	-4667
▁diocesi	-4668
rore	-4669
▁residente	-4670
▁internazionali	-4671
▁Vir	-4672
ddis	-4673
▁Stefano	-4674
▁utilizzare	-4675
pito	-4676
▁scambi	-4677
gan	-4678
▁Sin	-4679
▁nato	-4680
▁campanile	-4681
▁umana	-4682
▁colonna	-4683
▁campionati	-4684
▁Har	-4685
▁spet	-4686
▁trovò	-4687
▁umano	-4688
▁tradizionali	-4689
▁partecipazione	-4690
▁radia	-4691
▁preso	-4692
▁ricostrui	-4693
bora	-4694
istico	-4695
▁pio	-4696
liari	-4697
▁britannico	-4698
▁Mario	-4699
▁enti	-4700
▁volume	-4701
grafiche	-4702
▁cattura	-4703
▁cosiddetta	-4704
gore	-4705
▁addirittura	-4706
▁spiri	-4707
▁presentata	-4708
impero	-4709
▁congi	-4710
▁espri	-4711
▁Bologna	-4712
▁aggi	-4713
.)	-4714
▁sugli	-4715
▁elettro	-4716
▁Ogni	-4717
▁unica	-4718
anità	-4719
▁sessanta	-4720
▁Esi	-4721
▁cardinale	-4722
▁contrib	-4723
ens	-4724
rlo	-4725
▁progetta	-4726
eld	-4727
▁Jean	-4728
▁promozione	-4729
mber	-4730
unale	-4731
▁Micha	-4732
▁ampia	-4733
▁giuri	-4734
▁talvolta	-4735
▁Tosc	-4736
fice	-4737
▁Mil	-4738
▁Paper	-4739
▁diparti	-4740
quila	-4741
▁sosp	-4742
▁fianco	-4743
▁livelli	-4744
79	-4745
canza	-4746
▁somma	-4747
▁colonia	-4748
▁vecchia	-4749
▁immediatamente	-4750
ude	-4751
▁torri	-4752
▁Por	-4753
▁3,	-4754
▁guada	-4755
▁realizzata	-4756
bate	-4757
▁Gri	-4758
▁canzone	-4759
sivo	-4760
▁Territorio	-4761
35	-4762
▁regole	-4763
logico	-4764
▁Cina	-4765
Un	-4766
▁det	-4767
landa	-4768
▁Paul	-4769
mobili	-4770
▁Minis	-4771
▁devono	-4772
ffica	-4773
▁Cesare	-4774
▁mus	-4775
▁James	-4776
gar	-4777
▁insediamenti	-4778
prì	-4779
▁vers	-4780
esperi	-4781
missioni	-4782
76	-4783
▁alti	-4784
▁croce	-4785
▁successione	-4786
▁riconosciuto	-4787
▁italiane	-4788
14	-4789
dino	-4790
▁solamente	-4791
▁Chia	-4792
▁appartenenti	-4793
up	-4794
ttato	-4795
▁ragione	-4796
▁ferroviaria	-4797
▁volo	-4798
▁tratti	-4799
mes	-4800
▁settanta	-4801
entro	-4802
angelo	-4803
bria	-4804
pote	-4805
det	-4806
ciare	-4807
▁peso	-4808
enco	-4809
resci	-4810
▁terremoto	-4811
contro	-4812
XI	-4813
off	-4814
ttone	-4815
▁riva	-4816
▁Uno	-4817
▁piena	-4818
struttura	-4819
ticamente	-4820
▁Ponte	-4821
var	-4822
▁2013	-4823
enatore	-4824
▁definita	-4825
▁attraversato	-4826
eff	-4827
▁andò	-4828
gel	-4829
ood	-4830
▁Her	-4831
▁scor	-4832
▁Sotto	-4833
▁raggiunge	-4834
▁Ini	-4835
▁interamente	-4836
mila	-4837
▁pure	-4838
▁boschi	-4839
▁America	-4840
centi	-4841
▁chiave	-4842
▁guerre	-4843
stronomi	-4844
arò	-4845
▁pelle	-4846
▁consoli	-4847
▁collegamento	-4848
ficò	-4849
▁precipi	-4850
▁Parco	-4851
emontese	-4852
▁caratterizzata	-4853
vanza	-4854
▁cavallo	-4855
▁usata	-4856
▁ecclesia	-4857
sola	-4858
elezione	-4859
dico	-4860
erito	-4861
▁2003	-4862
▁sbar	-4863
ficati	-4864
▁Robert	-4865
▁cimi	-4866
▁sullo	-4867
▁Presidente	-4868
ruppo	-4869
▁morti	-4870
male	-4871
▁classica	-4872
▁dinastia	-4873
uzioni	-4874
gramma	-4875
▁Pas	-4876
anesimo	-4877
▁acquisi	-4878
▁speciale	-4879
tenti	-4880
▁sala	-4881
▁titoli	-4882
▁fabbrica	-4883
entò	-4884
▁amministrative	-4885
▁soggetto	-4886
▁facilmente	-4887
▁rappresentato	-4888
▁scrivere	-4889
▁impedi	-4890
▁fia	-4891
▁greca	-4892
▁Monti	-4893
▁moderni	-4894
arci	-4895
▁nulla	-4896
▁sostituito	-4897
▁ambito	-4898
▁versioni	-4899
▁europei	-4900
oggi	-4901
▁statunitensi	-4902
onesi	-4903
▁sper	-4904
▁diverso	-4905
ormente	-4906
pendenza	-4907
sson	-4908
En	-4909
▁contratto	-4910
tava	-4911
▁caus	-4912
stere	-4913
▁prove	-4914
▁2014	-4915
▁don	-4916
anismo	-4917
ise	-4918
▁figure	-4919
▁inserito	-4920
ou	-4921
▁scher	-4922
▁Andrea	-4923
▁vole	-4924
▁risorse	-4925
met	-4926
▁proposta	-4927
▁relazioni	-4928
occa	-4929
▁Conf	-4930
ct	-4931
cenze	-4932
bru	-4933
▁60	-4934
▁fri	-4935
stina	-4936
▁evol	-4937
18	-4938
▁umi	-4939
ssuto	-4940
▁piemontese	-4941
▁solitamente	-4942
▁ceri	-4943
▁eredi	-4944
terraneo	-4945
▁circonda	-4946
sma	-4947
▁fecero	-4948
eroporto	-4949
intro	-4950
▁aziende	-4951
▁sel	-4952
▁artifici	-4953
▁legati	-4954
▁Corte	-4955
utazione	-4956
sen	-4957
▁soste	-4958
▁matrice	-4959
▁150	-4960
▁Don	-4961
dito	-4962
ontana	-4963
▁antropica	-4964
▁imprese	-4965
▁programmi	-4966
▁Gugli	-4967
tenzione	-4968
▁risalgono	-4969
tene	-4970
dentali	-4971
▁epi	-4972
inasci	-4973
▁vettura	-4974
▁vicende	-4975
grado	-4976
▁avanti	-4977
▁IX	-4978
▁portata	-4979
mpe	-4980
▁ricevette	-4981
▁Hit	-4982
▁relativamente	-4983
78	-4984
▁Cali	-4985
▁trenta	-4986
▁democra	-4987
▁Pra	-4988
▁confi	-4989
▁processi	-4990
▁fede	-4991
▁dopoguerra	-4992
74	-4993
rne	-4994
mocra	-4995
▁riguardo	-4996
▁controlla	-4997
▁elettrica	-4998
pren	-4999
▁sap	-5000
▁incre	-5001
▁racco	-5002
▁ottanta	-5003
pran	-5004
▁buon	-5005
▁Mel	-5006
▁idee	-5007
▁vedere	-5008
▁canto	-5009
▁Sca	-5010
▁prendere	-5011
▁repubbli	-5012
anismi	-5013
▁Svizzera	-5014
▁Quest	-5015
▁possa	-5016
▁brano	-5017
▁paesa	-5018
▁doppio	-5019
▁recenti	-5020
▁bordo	-5021
▁costituzione	-5022
ji	-5023
▁Solo	-5024
▁Molti	-5025
▁Ke	-5026
atelli	-5027
▁motori	-5028
▁solare	-5029
▁condizione	-5030
pero	-5031
▁laure	-5032
▁baro	-5033
▁\	-5034
▁Dani	-5035
▁fascia	-5036
▁gene	-5037
vola	-5038
dotte	-5039
▁aspetti	-5040
▁gri	-5041
▁Croce	-5042
▁conosciuta	-5043
▁ricca	-5044
▁ricevuto	-5045
▁probabilità	-5046
▁equa	-5047
▁intitolato	-5048
▁vino	-5049
▁consecu	-5050
▁Emanu	-5051
bale	-5052
fini	-5053
▁Oggi	-5054
▁privile	-5055
Alto	-5056
▁palla	-5057
▁procla	-5058
▁temperature	-5059
▁iniziale	-5060
▁Hol	-5061
▁Sve	-5062
wer	-5063
▁sfor	-5064
▁potevano	-5065
pie	-5066
▁allu	-5067
▁Franco	-5068
▁tempio	-5069
ambiente	-5070
▁Hen	-5071
▁indiri	-5072
▁tipico	-5073
-200	-5074
24	-5075
▁Angel	-5076
▁esplo	-5077
▁stagioni	-5078
▁Domen	-5079
ontan	-5080
▁2016	-5081
angolo	-5082
▁disciplina	-5083
alità	-5084
▁catte	-5085
▁appartenente	-5086
▁propa	-5087
▁studia	-5088
ccademia	-5089
▁Bretagna	-5090
▁compresa	-5091
▁ristruttura	-5092
die	-5093
ght	-5094
▁tappa	-5095
bor	-5096
cini	-5097
terà	-5098
dore	-5099
▁appre	-5100
▁passi	-5101
▁culturali	-5102
Sa	-5103
tine	-5104
▁ade	-5105
liare	-5106
▁Para	-5107
▁canale	-5108
3)	-5109
dossa	-5110
oniche	-5111
▁transi	-5112
▁religiosa	-5113
2)	-5114
▁sindaco	-5115
stono	-5116
▁conven	-5117
▁coordina	-5118
essere	-5119
▁azioni	-5120
▁visione	-5121
▁rivoluzione	-5122
▁esclusivamente	-5123
cy	-5124
pore	-5125
▁Far	-5126
▁Gian	-5127
deo	-5128
tum	-5129
▁Vo	-5130
rere	-5131
▁ritra	-5132
▁suolo	-5133
▁lasciò	-5134
ordano	-5135
▁Vincen	-5136
▁basato	-5137
▁combatti	-5138
ettono	-5139
▁ipoti	-5140
▁architett	-5141
▁muo	-5142
ring	-5143
▁artigi	-5144
▁permesso	-5145
▁patrimonio	-5146
▁George	-5147
99	-5148
▁vul	-5149
▁tour	-5150
▁coinci	-5151
▁aumen	-5152
▁chitar	-5153
▁comi	-5154
▁pole	-5155
▁circuito	-5156
▁variabile	-5157
▁rib	-5158
▁incontro	-5159
▁riconoscimento	-5160
55	-5161
cur	-5162
dde	-5163
▁banda	-5164
▁vicini	-5165
posito	-5166
ttr	-5167
teriormente	-5168
▁orto	-5169
▁Alberto	-5170
clo	-5171
▁assegnato	-5172
▁Za	-5173
▁sacri	-5174
▁contenuto	-5175
▁giocatore	-5176
pio	-5177
▁Toscana	-5178
orld	-5179
▁Cel	-5180
grafi	-5181
▁segue	-5182
▁dramma	-5183
▁potuto	-5184
▁risposta	-5185
ttando	-5186
umere	-5187
vietica	-5188
renti	-5189
▁ultimo	-5190
88	-5191
▁Luca	-5192
▁pronuncia	-5193
lanti	-5194
ettiva	-5195
uscita	-5196
▁costella	-5197
▁citato	-5198
▁accetta	-5199
▁notizia	-5200
▁moderno	-5201
ipotesi	-5202
▁monete	-5203
influenza	-5204
▁utilizzando	-5205
clu	-5206
ttan	-5207
▁profi	-5208
▁Sebbene	-5209
▁Vergine	-5210
mona	-5211
▁Peter	-5212
▁Vienna	-5213
▁possiede	-5214
▁sesto	-5215
equa	-5216
▁Lega	-5217
▁David	-5218
▁offer	-5219
▁reperti	-5220
simi	-5221
ttere	-5222
▁distin	-5223
metri	-5224
appro	-5225
▁religioso	-5226
▁demografica	-5227
ST	-5228
▁determin	-5229
▁trasmissione	-5230
ciata	-5231
▁cose	-5232
▁fram	-5233
▁Inter	-5234
▁Centro	-5235
▁giuris	-5236
▁primavera	-5237
▁iniziarono	-5238
erdo	-5239
mblea	-5240
▁belli	-5241
▁navata	-5242
▁satelli	-5243
▁turismo	-5244
dam	-5245
▁oper	-5246
▁limite	-5247
▁tecnico	-5248
▁male	-5249
escovo	-5250
▁larga	-5251
▁comandante	-5252
▁amministrazioni	-5253
▁atle	-5254
▁presa	-5255
detti	-5256
▁Bur	-5257
▁Fla	-5258
enziali	-5259
▁celebra	-5260
denze	-5261
▁rock	-5262
▁amico	-5263
▁soddis	-5264
▁veloce	-5265
▁Michael	-5266
▁attacchi	-5267
gani	-5268
xi	-5269
scar	-5270
▁debu	-5271
▁esta	-5272
▁maestro	-5273
▁compagnia	-5274
sini	-5275
▁solle	-5276
erita	-5277
▁Signo	-5278
▁vice	-5279
bole	-5280
▁Guglielmo	-5281
▁estremamente	-5282
▁messo	-5283
isco	-5284
▁sottop	-5285
▁rendere	-5286
▁attiva	-5287
dol	-5288
▁dà	-5289
▁giochi	-5290
▁possibili	-5291
▁sostan	-5292
▁distretto	-5293
cane	-5294
▁dotato	-5295
▁promos	-5296
sy	-5297
▁dovuta	-5298
▁scul	-5299
▁attacca	-5300
▁Hi	-5301
▁agi	-5302
▁sedi	-5303
▁ricche	-5304
▁reda	-5305
▁denominata	-5306
▁—	-5307
▁Rich	-5308
sori	-5309
endere	-5310
▁musici	-5311
▁accesso	-5312
▁Mari	-5313
▁ampio	-5314
▁custo	-5315
▁ammi	-5316
▁danne	-5317
erata	-5318
-0	-5319
bin	-5320
▁aci	-5321
▁battu	-5322
▁sceneggia	-5323
▁reca	-5324
▁formare	-5325
cone	-5326
▁500	-5327
ltà	-5328
▁orbi	-5329
stituto	-5330
▁raggiunse	-5331
▁cli	-5332
▁convento	-5333
▁presentano	-5334
▁lavorazione	-5335
vest	-5336
▁vanno	-5337
NA	-5338
▁Classi	-5339
▁stesse	-5340
▁mancanza	-5341
rava	-5342
▁abba	-5343
ticolo	-5344
▁accol	-5345
▁Emanuele	-5346
stein	-5347
▁Bres	-5348
ottobre	-5349
lievi	-5350
▁acce	-5351
▁perciò	-5352
▁episodi	-5353
id	-5354
▁porte	-5355
▁ripet	-5356
▁Umb	-5357
inisce	-5358
occupazione	-5359
▁Club	-5360
▁pista	-5361
▁distruzione	-5362
piano	-5363
▁extra	-5364
inva	-5365
▁domenica	-5366
▁Sovietica	-5367
▁ossi	-5368
ficazioni	-5369
▁diffusa	-5370
▁testimonianze	-5371
▁santi	-5372
mal	-5373
▁evento	-5374
▁densità	-5375
▁urbano	-5376
▁colonne	-5377
▁archeologici	-5378
▁sostegno	-5379
▁Jack	-5380
▁assunse	-5381
▁Visconti	-5382
Con	-5383
ball	-5384
▁Pon	-5385
▁ruo	-5386
▁corpi	-5387
▁mezzi	-5388
▁Infine	-5389
▁fenomeni	-5390
▁rapidamente	-5391
▁attacco	-5392
▁verifica	-5393
▁sla	-5394
▁cono	-5395
64	-5396
tela	-5397
▁marina	-5398
▁metodi	-5399
▁fasi	-5400
analisi	-5401
▁prigioni	-5402
SC	-5403
”,	-5404
tis	-5405
ucina	-5406
▁nata	-5407
▁anali	-5408
▁compet	-5409
▁contribui	-5410
Di	-5411
▁As	-5412
▁montagna	-5413
▁realizzare	-5414
itali	-5415
▁legame	-5416
▁ambienti	-5417
▁comportamento	-5418
vina	-5419
▁fissa	-5420
▁ricostruzione	-5421
▁Già	-5422
▁Guerra	-5423
▁scontro	-5424
▁geomet	-5425
▁Più	-5426
▁Ron	-5427
SS	-5428
▁autonoma	-5429
▁manifestazione	-5430
▁compito	-5431
▁Sei	-5432
cante	-5433
▁alcuna	-5434
▁abitati	-5435
▁sacerdo	-5436
▁alte	-5437
▁esempi	-5438
▁difensi	-5439
▁cinquanta	-5440
▁Giulio	-5441
▁sig	-5442
▁passando	-5443
gò	-5444
▁vesti	-5445
▁notizie	-5446
▁Lon	-5447
▁Grego	-5448
▁Messi	-5449
▁brani	-5450
▁nobile	-5451
elice	-5452
▁Divisione	-5453
▁35	-5454
indipendenza	-5455
ps	-5456
ettò	-5457
rolo	-5458
▁even	-5459
▁esemp	-5460
▁area	-5461
gamento	-5462
▁Leon	-5463
▁solito	-5464
▁economiche	-5465
84	-5466
logica	-5467
▁dottr	-5468
▁sequenza	-5469
▁sepp	-5470
▁diffuso	-5471
1)	-5472
▁Eu	-5473
prire	-5474
▁Veneto	-5475
▁Ir	-5476
▁amministrativa	-5477
85	-5478
▁(20	-5479
anora	-5480
▁cinese	-5481
giosi	-5482
▁2017	-5483
▁punte	-5484
▁regina	-5485
rom	-5486
▁residenza	-5487
▁Cir	-5488
talità	-5489
gran	-5490
tuna	-5491
▁corsi	-5492
▁scelto	-5493
sole	-5494
▁pubblicò	-5495
▁scrittura	-5496
▁settimane	-5497
Ba	-5498
ence	-5499
▁poté	-5500
contra	-5501
▁composti	-5502
▁fondamentali	-5503
▁182	-5504
deria	-5505
▁centina	-5506
▁diviso	-5507
▁fisico	-5508
▁accanto	-5509
▁cimitero	-5510
17	-5511
▁pan	-5512
▁2002	-5513
ggiamento	-5514
don	-5515
▁plu	-5516
▁dominazione	-5517
▁Tar	-5518
uziona	-5519
▁Barba	-5520
ellini	-5521
▁aperta	-5522
chino	-5523
▁precedenza	-5524
▁inven	-5525
33	-5526
▁rila	-5527
▁avversa	-5528
▁effettu	-5529
sin	-5530
▁Ferdin	-5531
▁Bea	-5532
▁Seconda	-5533
▁arrivare	-5534
▁assoluta	-5535
▁originario	-5536
▁ove	-5537
▁Como	-5538
▁morto	-5539
▁irre	-5540
derale	-5541
▁vantaggio	-5542
Qu	-5543
anchi	-5544
gliato	-5545
▁Teatro	-5546
▁tornare	-5547
▁lavorare	-5548
we	-5549
▁Alcune	-5550
▁generi	-5551
▁percen	-5552
interpre	-5553
▁tecnologia	-5554
▁ulteriormente	-5555
82	-5556
pla	-5557
▁accade	-5558
llare	-5559
▁tardo	-5560
goli	-5561
▁Pala	-5562
▁manu	-5563
▁terreni	-5564
ting	-5565
▁diversa	-5566
▁imperatore	-5567
▁pittore	-5568
▁assicura	-5569
tì	-5570
▁sve	-5571
▁Alpi	-5572
▁Borgo	-5573
▁quinto	-5574
▁individ	-5575
▁particelle	-5576
▁basata	-5577
gri	-5578
bano	-5579
universo	-5580
77	-5581
13	-5582
▁verrà	-5583
▁chimica	-5584
▁be	-5585
dali	-5586
▁ripa	-5587
▁tren	-5588
occasione	-5589
▁denominato	-5590
▁Sol	-5591
abbazia	-5592
▁compagni	-5593
45	-5594
▁avvia	-5595
▁affian	-5596
▁canzoni	-5597
▁settimana	-5598
▁tel	-5599
aspetto	-5600
▁rappresentano	-5601
▁attivo	-5602
▁proveniente	-5603
▁meccanica	-5604
▁operativo	-5605
▁definitiva	-5606
▁territoriale	-5607
vino	-5608
▁perdita	-5609
shi	-5610
rona	-5611
▁2018	-5612
▁racconto	-5613
▁portando	-5614
▁ricco	-5615
▁mm	-5616
dar	-5617
▁Eli	-5618
▁disegno	-5619
altezza	-5620
▁frequenza	-5621
▁Marc	-5622
▁Descrizione	-5623
vise	-5624
▁romanzi	-5625
▁dimensione	-5626
▁espre	-5627
▁tribù	-5628
▁compare	-5629
▁minaccia	-5630
▁industriali	-5631
way	-5632
architettura	-5633
89	-5634
▁signori	-5635
estri	-5636
▁catena	-5637
▁franco	-5638
▁poesia	-5639
▁dena	-5640
hr	-5641
ccar	-5642
▁longobar	-5643
▁sportivo	-5644
▁cristiana	-5645
▁fis	-5646
▁marito	-5647
evoluzione	-5648
mella	-5649
▁vuole	-5650
▁legate	-5651
▁terrestre	-5652
prio	-5653
▁nego	-5654
▁Roberto	-5655
▁personalità	-5656
▁Ele	-5657
drale	-5658
▁convo	-5659
▁cuore	-5660
uola	-5661
vico	-5662
▁partecipò	-5663
▁scienza	-5664
▁batte	-5665
▁ritrova	-5666
▁testimonianza	-5667
▁*	-5668
ologico	-5669
▁variabili	-5670
▁Ul	-5671
▁siti	-5672
▁montana	-5673
▁cristiani	-5674
inca	-5675
▁Caratter	-5676
▁Italiana	-5677
mbur	-5678
▁vei	-5679
minazione	-5680
▁fascista	-5681
66	-5682
▁Mod	-5683
▁quei	-5684
▁studenti	-5685
▁racconti	-5686
▁specialmente	-5687
vra	-5688
▁subi	-5689
▁assai	-5690
▁usati	-5691
▁gradi	-5692
▁quaran	-5693
Mi	-5694
azi	-5695
▁effetto	-5696
▁Benedetto	-5697
▁comunemente	-5698
ffico	-5699
gici	-5700
▁Basi	-5701
unione	-5702
omonimo	-5703
▁giunse	-5704
▁alleati	-5705
▁Porta	-5706
▁orienta	-5707
▁chiaro	-5708
▁entrare	-5709
▁Sy	-5710
▁Rai	-5711
▁arre	-5712
▁estre	-5713
▁giornata	-5714
▁musicali	-5715
▁corrispondenza	-5716
▁dedi	-5717
▁000	-5718
▁chiamati	-5719
udale	-5720
▁fuga	-5721
archia	-5722
▁pieno	-5723
▁sopran	-5724
▁semplici	-5725
▁prefer	-5726
▁spagnolo	-5727
▁temi	-5728
▁profession	-5729
ceo	-5730
▁disse	-5731
▁collabora	-5732
▁trasformazione	-5733
▁mari	-5734
▁marmo	-5735
▁miliardi	-5736
▁Lago	-5737
versale	-5738
licazione	-5739
marono	-5740
▁aspetto	-5741
▁Lingu	-5742
▁rischio	-5743
▁Festival	-5744
▁Ex	-5745
▁ran	-5746
▁chiama	-5747
▁consente	-5748
cula	-5749
▁rigi	-5750
ellino	-5751
pprima	-5752
▁Cra	-5753
▁nipote	-5754
▁tradizioni	-5755
▁costituiscono	-5756
erale	-5757
▁liqui	-5758
▁vincere	-5759
inea	-5760
▁rese	-5761
▁dichi	-5762
▁turno	-5763
▁Hitler	-5764
▁Brescia	-5765
▁sorella	-5766
▁prosegui	-5767
▁Kar	-5768
▁Clau	-5769
ald	-5770
tol	-5771
▁Sha	-5772
▁vale	-5773
▁bacino	-5774
▁malattia	-5775
▁merito	-5776
▁propor	-5777
ttualmente	-5778
▁Saint	-5779
gamo	-5780
accesso	-5781
onendo	-5782
ku	-5783
cosa	-5784
importanza	-5785
▁biblioteca	-5786
Ri	-5787
▁test	-5788
▁profon	-5789
esperienza	-5790
▁resa	-5791
▁colpo	-5792
▁decennio	-5793
▁Capi	-5794
allora	-5795
▁elevata	-5796
▁(200	-5797
▁bianca	-5798
▁favori	-5799
"'	-5800
▁fumetti	-5801
▁maschile	-5802
▁variante	-5803
▁ho	-5804
mmet	-5805
▁1999	-5806
autori	-5807
▁stabil	-5808
▁evidente	-5809
▁ordini	-5810
32	-5811
dige	-5812
▁componente	-5813
viera	-5814
▁spia	-5815
▁Casti	-5816
▁Ducato	-5817
▁applicazioni	-5818
▁suono	-5819
▁fattori	-5820
▁Senato	-5821
72	-5822
siva	-5823
▁potente	-5824
▁penisola	-5825
▁lasciando	-5826
▁Pos	-5827
▁gradu	-5828
▁vento	-5829
cesimo	-5830
▁stili	-5831
▁dichiarato	-5832
dum	-5833
▁certi	-5834
▁scontri	-5835
▁Sulla	-5836
▁Padova	-5837
▁accusa	-5838
96	-5839
▁tradu	-5840
▁produrre	-5841
tec	-5842
tania	-5843
tiene	-5844
▁eviden	-5845
▁psicolo	-5846
▁movimenti	-5847
apertura	-5848
▁Ana	-5849
▁1998	-5850
▁stri	-5851
Antonio	-5852
▁arresta	-5853
grafo	-5854
▁gala	-5855
▁ottenendo	-5856
▁regionali	-5857
▁2.	-5858
dows	-5859
▁Ala	-5860
▁Bul	-5861
▁punta	-5862
▁Monaco	-5863
▁indicato	-5864
▁magni	-5865
▁Gregorio	-5866
▁dona	-5867
tia	-5868
▁1997	-5869
▁diba	-5870
▁pesca	-5871
talmente	-5872
▁lontano	-5873
▁intitolata	-5874
▁Los	-5875
strada	-5876
Vi	-5877
▁seguì	-5878
▁Piazza	-5879
▁avveni	-5880
▁preferi	-5881
▁ricordare	-5882
▁originariamente	-5883
▁diventato	-5884
ón	-5885
▁fiumi	-5886
▁dura	-5887
▁tesi	-5888
artiene	-5889
▁abbandon	-5890
▁traffico	-5891
▁sottoline	-5892
▁giustizia	-5893
ennio	-5894
▁utilizzate	-5895
▁Nuova	-5896
▁dichiarò	-5897
▁commi	-5898
▁compar	-5899
kin	-5900
▁pesante	-5901
odier	-5902
stato	-5903
▁concluse	-5904
▁testimonia	-5905
timo	-5906
▁costu	-5907
95	-5908
▁45	-5909
fran	-5910
▁usare	-5911
▁Pur	-5912
ganti	-5913
▁ster	-5914
▁vasta	-5915
▁portarono	-5916
▁monumento	-5917
dosso	-5918
▁ulteriori	-5919
ttor	-5920
▁ramo	-5921
▁raggi	-5922
▁raffor	-5923
▁polizia	-5924
▁santuario	-5925
aff	-5926
▁4,	-5927
omonima	-5928
usura	-5929
▁ripresa	-5930
Ci	-5931
her	-5932
▁Pavia	-5933
▁barba	-5934
▁tipici	-5935
▁panora	-5936
▁vescovi	-5937
▁campagne	-5938
▁sce	-5939
▁Mare	-5940
▁novanta	-5941
▁pontefice	-5942
unciò	-5943
▁1996	-5944
▁quegli	-5945
amore	-5946
▁Siena	-5947
▁ambienta	-5948
ski	-5949
▁usc	-5950
▁prevede	-5951
▁secondi	-5952
▁istituzioni	-5953
▁bel	-5954
▁apposi	-5955
▁scientifica	-5956
▁ritiene	-5957
▁ambiente	-5958
▁continui	-5959
ab	-5960
epi	-5961
etna	-5962
▁Franci	-5963
▁coloro	-5964
▁effica	-5965
get	-5966
▁web	-5967
forme	-5968
introduzione	-5969
App	-5970
▁spar	-5971
evento	-5972
attacco	-5973
▁edizioni	-5974
▁modifiche	-5975
rendi	-5976
▁zero	-5977
cht	-5978
architetto	-5979
▁iniziato	-5980
▁We	-5981
▁Così	-5982
▁inglesi	-5983
65	-5984
▁1995	-5985
▁sacche	-5986
▁Domenico	-5987
fero	-5988
unti	-5989
▁pola	-5990
ford	-5991
▁Rocco	-5992
▁garan	-5993
▁feudale	-5994
▁compagno	-5995
▁occ	-5996
▁Cinque	-5997
bol	-5998
▁32	-5999
▁Lou	-6000
▁delega	-6001
▁notare	-6002
▁capitano	-6003
▁Settecento	-6004
▁sì	-6005
0,000	-6006
cidio	-6007
▁passe	-6008
▁Ki	-6009
▁concerto	-6010
fabe	-6011
▁2019	-6012
▁persi	-6013
▁deciso	-6014
▁popoli	-6015
▁teorie	-6016
▁Congresso	-6017
▁Air	-6018
▁americano	-6019
ther	-6020
stiano	-6021
▁civiltà	-6022
▁versante	-6023
▁imb	-6024
▁reci	-6025
nico	-6026
▁intelle	-6027
▁vittime	-6028
▁spazi	-6029
▁previsto	-6030
▁regolare	-6031
guardo	-6032
▁contea	-6033
detta	-6034
▁euro	-6035
▁famosa	-6036
▁quarta	-6037
▁spaziale	-6038
▁1994	-6039
▁Anni	-6040
▁Emilia	-6041
▁giudica	-6042
ue	-6043
polo	-6044
▁coni	-6045
mosfera	-6046
ole	-6047
dero	-6048
▁limitro	-6049
▁portale	-6050
▁ultima	-6051
▁nazioni	-6052
▁Vincenzo	-6053
▁Mondo	-6054
▁restitu	-6055
▁lì	-6056
▁inda	-6057
▁avvenuto	-6058
▁presentato	-6059
▁sicura	-6060
▁ucciso	-6061
▁Williams	-6062
▁Ferdinando	-6063
▁pezzi	-6064
▁telef	-6065
▁Canada	-6066
▁nazione	-6067
▁assoluto	-6068
”.	-6069
▁Fonda	-6070
▁incen	-6071
▁agricola	-6072
▁centrali	-6073
▁giurisdizione	-6074
▁legisla	-6075
▁restauro	-6076
▁visibili	-6077
ky	-6078
▁russo	-6079
obiettivo	-6080
▁ricerche	-6081
▁potesse	-6082
▁spedizione	-6083
side	-6084
▁play	-6085
▁monti	-6086
ccidente	-6087
▁Charles	-6088
34	-6089
AR	-6090
▁""	-6091
▁ama	-6092
▁giri	-6093
▁Sto	-6094
▁Matte	-6095
▁modalità	-6096
mori	-6097
ttica	-6098
▁rimasto	-6099
importante	-6100
▁cerimonia	-6101
.),	-6102
erri	-6103
▁sovrani	-6104
▁USA	-6105
▁2020	-6106
▁vive	-6107
▁rossa	-6108
▁dodici	-6109
▁svolta	-6110
▁autonomo	-6111
ettivi	-6112
▁scola	-6113
▁Camera	-6114
ficate	-6115
▁Polonia	-6116
▁divisa	-6117
▁provve	-6118
▁lasciare	-6119
genze	-6120
▁Bona	-6121
invasione	-6122
▁migliaia	-6123
▁Num	-6124
▁Phi	-6125
▁VIII	-6126
cevano	-6127
▁diffuse	-6128
▁considerati	-6129
asc	-6130
▁PC	-6131
▁stabile	-6132
tire	-6133
tunno	-6134
▁mise	-6135
▁osta	-6136
▁lasciato	-6137
enz	-6138
▁80	-6139
dire	-6140
mino	-6141
▁aggior	-6142
▁sangue	-6143
espressione	-6144
▁disponibile	-6145
36	-6146
▁deva	-6147
▁premi	-6148
▁mettere	-6149
▁classico	-6150
ici	-6151
▁olimpici	-6152
▁stretto	-6153
▁innova	-6154
87	-6155
chestra	-6156
▁Pisa	-6157
▁Reggio	-6158
▁nessun	-6159
▁geografica	-6160
▁Messico	-6161
▁5,	-6162
giche	-6163
mendo	-6164
▁poteri	-6165
▁Parma	-6166
forza	-6167
▁adottato	-6168
▁Tour	-6169
▁cima	-6170
▁statue	-6171
▁nazionalità	-6172
▁medico	-6173
aldo	-6174
orno	-6175
▁NBA	-6176
▁Pan	-6177
▁spalle	-6178
▁percentuale	-6179
▁Martin	-6180
▁sviluppò	-6181
▁()	-6182
▁Venne	-6183
azienda	-6184
▁ebraica	-6185
▁cantante	-6186
22	-6187
fu	-6188
idi	-6189
▁1990	-6190
▁medaglia	-6191
gando	-6192
▁virtù	-6193
▁succedute	-6194
▁introdotto	-6195
mmo	-6196
▁matt	-6197
▁sposò	-6198
▁Marina	-6199
▁andare	-6200
▁lumino	-6201
▁notevolmente	-6202
▁Bon	-6203
▁prede	-6204
▁ville	-6205
Istituto	-6206
sser	-6207
aprile	-6208
▁mette	-6209
▁prossi	-6210
▁anda	-6211
▁religiosi	-6212
▁90	-6213
resa	-6214
▁belle	-6215
▁dapprima	-6216
▁occidentali	-6217
lis	-6218
▁normale	-6219
▁ghi	-6220
▁vis	-6221
▁Clima	-6222
▁trasferì	-6223
terina	-6224
▁incidente	-6225
tologia	-6226
▁pellicola	-6227
ternet	-6228
Accademia	-6229
lun	-6230
▁curva	-6231
▁comm	-6232
ggiano	-6233
pedale	-6234
tran	-6235
mentato	-6236
Lo	-6237
viamo	-6238
▁sici	-6239
▁censi	-6240
arma	-6241
vese	-6242
▁ditta	-6243
▁vio	-6244
▁fama	-6245
lanese	-6246
▁latina	-6247
▁aumento	-6248
▁chies	-6249
▁mira	-6250
▁Calabria	-6251
ccidentale	-6252
▁ved	-6253
▁decide	-6254
▁specifica	-6255
▁War	-6256
▁appartiene	-6257
1),	-6258
errato	-6259
▁rivoluziona	-6260
soli	-6261
stem	-6262
foro	-6263
gionale	-6264
uca	-6265
▁occhi	-6266
ington	-6267
▁Lazio	-6268
▁artistico	-6269
▁Attualmente	-6270
Se	-6271
vello	-6272
▁formata	-6273
▁recupera	-6274
▁soggetti	-6275
▁rotazione	-6276
38	-6277
zionata	-6278
▁armate	-6279
▁labora	-6280
▁resp	-6281
agosto	-6282
retti	-6283
▁dipartimento	-6284
tività	-6285
▁Salva	-6286
▁calci	-6287
▁flusso	-6288
▁frutto	-6289
▁straordina	-6290
▁tasti	-6291
▁Belgio	-6292
Ne	-6293
▁rinno	-6294
▁riuscirono	-6295
▁Ac	-6296
▁insediamento	-6297
han	-6298
▁Am	-6299
▁equival	-6300
▁Maggiore	-6301
▁espressi	-6302
Gi	-6303
usei	-6304
▁din	-6305
▁Ferrovie	-6306
bero	-6307
scol	-6308
▁1992	-6309
▁fedeli	-6310
▁monaci	-6311
▁rettan	-6312
▁radiazione	-6313
▁170	-6314
▁riba	-6315
▁aerei	-6316
ggiante	-6317
▁salute	-6318
Co	-6319
▁leader	-6320
▁dispone	-6321
▁germani	-6322
3),	-6323
troni	-6324
vallo	-6325
venza	-6326
▁coste	-6327
▁raggio	-6328
▁occupato	-6329
▁Provincia	-6330
▁riferisce	-6331
▁conseguente	-6332
ulso	-6333
nei	-6334
cessione	-6335
ones	-6336
▁Stan	-6337
▁disponibili	-6338
duca	-6339
▁notevoli	-6340
▁Studi	-6341
evi	-6342
▁racconta	-6343
▁Nova	-6344
▁interne	-6345
▁soprann	-6346
▁voti	-6347
▁calcolo	-6348
▁segnale	-6349
▁aus	-6350
▁Impero	-6351
▁eccezione	-6352
▁Patri	-6353
effetto	-6354
▁infini	-6355
▁Windows	-6356
▁crescente	-6357
▁Parlamento	-6358
stò	-6359
valle	-6360
▁promuo	-6361
iti	-6362
quil	-6363
▁(15	-6364
▁Grecia	-6365
▁prevedeva	-6366
▁probabile	-6367
▁realizzati	-6368
lon	-6369
ttive	-6370
▁elevato	-6371
▁scienzia	-6372
▁contenuti	-6373
stone	-6374
▁britannica	-6375
Ro	-6376
gola	-6377
orbita	-6378
▁debole	-6379
▁abitazioni	-6380
No	-6381
▁dotata	-6382
▁vivere	-6383
▁spagnola	-6384
▁universi	-6385
▁Verona	-6386
▁contraddi	-6387
▁manifestazioni	-6388
ermo	-6389
losa	-6390
ceano	-6391
▁danno	-6392
▁metalli	-6393
▁1991	-6394
▁regio	-6395
endario	-6396
▁post	-6397
stenti	-6398
▁colline	-6399
▁confina	-6400
▁elen	-6401
ustralia	-6402
▁rappresentata	-6403
▁noi	-6404
▁175	-6405
▁mill	-6406
▁impianti	-6407
▁Che	-6408
▁Mosca	-6409
▁laterali	-6410
▁tedesche	-6411
▁1980	-6412
▁flotta	-6413
ettamente	-6414
ttrice	-6415
▁antici	-6416
▁ingegn	-6417
▁basilica	-6418
ony	-6419
▁mete	-6420
onente	-6421
tualmente	-6422
▁astronomi	-6423
▁straniera	-6424
▁conservato	-6425
▁Costantinopoli	-6426
▁interni	-6427
▁definire	-6428
▁divinità	-6429
▁scoperto	-6430
▁vincitore	-6431
▁160	-6432
giano	-6433
gnate	-6434
▁nomin	-6435
▁perce	-6436
▁abbond	-6437
▁marchese	-6438
deri	-6439
▁Mauri	-6440
▁trovato	-6441
▁tutela	-6442
▁Bergamo	-6443
▁corrisponde	-6444
▁corrispondente	-6445
▁spin	-6446
▁lancio	-6447
▁Urb	-6448
mante	-6449
▁cana	-6450
▁ener	-6451
kov	-6452
terio	-6453
▁Olimpia	-6454
▁permise	-6455
▁diventando	-6456
▁World	-6457
chel	-6458
▁cera	-6459
rid	-6460
bera	-6461
▁decre	-6462
ameri	-6463
gistra	-6464
▁genitori	-6465
uffici	-6466
▁conser	-6467
▁denaro	-6468
▁esercito	-6469
Inghilterra	-6470
emi	-6471
esterno	-6472
▁consac	-6473
net	-6474
▁singoli	-6475
▁contrada	-6476
▁configu	-6477
▁concerti	-6478
▁descrive	-6479
▁cm	-6480
▁cru	-6481
entino	-6482
wood	-6483
▁1993	-6484
▁Bran	-6485
NE	-6486
▁1970	-6487
▁nemico	-6488
gnamento	-6489
▁spirito	-6490
▁interpretato	-6491
▁bril	-6492
▁voto	-6493
▁tipica	-6494
▁interventi	-6495
▁scientifico	-6496
ind	-6497
ensa	-6498
ense	-6499
▁Strade	-6500
▁Mis	-6501
▁volumi	-6502
▁traspor	-6503
39	-6504
▁vendita	-6505
equazione	-6506
68	-6507
pollo	-6508
▁carne	-6509
▁mul	-6510
▁europee	-6511
▁bud	-6512
▁Frank	-6513
▁tiene	-6514
▁as	-6515
ston	-6516
▁lettura	-6517
▁cicli	-6518
▁risalenti	-6519
lor	-6520
▁conferma	-6521
▁rendendo	-6522
rus	-6523
issima	-6524
▁tenuto	-6525
▁Bla	-6526
▁Pom	-6527
ville	-6528
▁lumin	-6529
▁trion	-6530
▁Democra	-6531
giani	-6532
▁esterno	-6533
unt	-6534
▁Capp	-6535
▁vivo	-6536
▁crista	-6537
▁frequenti	-6538
▁contributo	-6539
guì	-6540
▁morale	-6541
▁riconos	-6542
▁Caterina	-6543
▁protagonisti	-6544
▁risalire	-6545
▁Viene	-6546
▁seguire	-6547
ombo	-6548
▁improv	-6549
▁opport	-6550
▁urbana	-6551
▁successore	-6552
ologica	-6553
▁lombar	-6554
▁settori	-6555
geva	-6556
scio	-6557
▁cra	-6558
▁vigore	-6559
▁Inghilterra	-6560
,"	-6561
...]	-6562
▁tensione	-6563
omas	-6564
marsi	-6565
▁Richard	-6566
maso	-6567
ribal	-6568
▁Pale	-6569
▁Mediterraneo	-6570
▁Sacro	-6571
▁quadro	-6572
artista	-6573
26	-6574
▁bit	-6575
▁arte	-6576
▁tela	-6577
▁valli	-6578
▁formano	-6579
▁partecipare	-6580
▁raffigurante	-6581
dori	-6582
ller	-6583
▁legitti	-6584
je	-6585
▁70	-6586
nata	-6587
▁Ali	-6588
librio	-6589
▁mondiali	-6590
37	-6591
▁tenne	-6592
alleria	-6593
impi	-6594
talo	-6595
▁obi	-6596
▁igno	-6597
▁nave	-6598
▁venendo	-6599
97	-6600
dimen	-6601
scere	-6602
▁devo	-6603
▁Poiché	-6604
▁Internet	-6605
▁originaria	-6606
48	-6607
orsi	-6608
▁sfo	-6609
classi	-6610
▁Anton	-6611
hu	-6612
gheria	-6613
▁precedentemente	-6614
cona	-6615
pale	-6616
▁onda	-6617
▁scrive	-6618
▁descritto	-6619
yer	-6620
▁Comp	-6621
▁Sara	-6622
▁bina	-6623
▁Bassi	-6624
utati	-6625
▁ampli	-6626
▁completo	-6627
▁divenuto	-6628
▁Cas	-6629
▁delimi	-6630
▁moneta	-6631
▁attuali	-6632
▁Manto	-6633
▁cavali	-6634
centesca	-6635
▁discorso	-6636
▁deten	-6637
doro	-6638
▁Galli	-6639
gari	-6640
▁der	-6641
glianza	-6642
▁equipa	-6643
▁ripren	-6644
94	-6645
IA	-6646
.).	-6647
eth	-6648
▁inde	-6649
▁amplia	-6650
omb	-6651
ction	-6652
▁Luna	-6653
inverno	-6654
▁ogn	-6655
▁Governo	-6656
▁episodio	-6657
▁Tali	-6658
▁Alessandria	-6659
▁generazione	-6660
Star	-6661
sura	-6662
terie	-6663
▁nuclei	-6664
▁fortuna	-6665
▁scu	-6666
▁Sala	-6667
▁critiche	-6668
ult	-6669
grafici	-6670
▁2023	-6671
▁Poco	-6672
▁Seba	-6673
▁strin	-6674
▁Evoluzione	-6675
▁pieve	-6676
associazione	-6677
▁comprendeva	-6678
tele	-6679
tona	-6680
▁2022	-6681
▁perdite	-6682
▁scuderia	-6683
▁Costituzione	-6684
Si	-6685
dando	-6686
▁assume	-6687
▁distrutto	-6688
98	-6689
▁Corpo	-6690
▁americani	-6691
▁fornire	-6692
▁friula	-6693
▁fondatore	-6694
▁contenente	-6695
▁segretario	-6696
▁Van	-6697
ssioni	-6698
▁patrono	-6699
ys	-6700
▁ced	-6701
anesi	-6702
▁Primo	-6703
accordo	-6704
▁responsabile	-6705
▁trasferimento	-6706
_10	-6707
identi	-6708
▁Ottone	-6709
▁rappresentanti	-6710
▁sto	-6711
magne	-6712
▁artistica	-6713
ranei	-6714
▁Palla	-6715
▁bilan	-6716
▁assunto	-6717
▁Quindi	-6718
▁invernali	-6719
▁onde	-6720
▁soggior	-6721
▁pubbliche	-6722
busti	-6723
media	-6724
torie	-6725
▁predi	-6726
▁identifica	-6727
▁soff	-6728
▁messi	-6729
▁scienze	-6730
ado	-6731
pide	-6732
▁Fos	-6733
▁Ponti	-6734
▁utenti	-6735
▁dibatti	-6736
tes	-6737
▁vicine	-6738
rena	-6739
▁Dall	-6740
▁Micro	-6741
▁conobbe	-6742
▁ribelli	-6743
centesco	-6744
▁partiti	-6745
the	-6746
mosi	-6747
ques	-6748
rarono	-6749
tegoria	-6750
▁capace	-6751
▁Cap	-6752
▁tan	-6753
▁2024	-6754
▁competizione	-6755
ccò	-6756
spa	-6757
▁Scri	-6758
vescovo	-6759
▁riduzione	-6760
▁milita	-6761
▁coltivazione	-6762
▁strettamente	-6763
▁Ora	-6764
▁rit	-6765
gorit	-6766
risti	-6767
▁scudo	-6768
▁bisogno	-6769
▁divennero	-6770
▁costellazione	-6771
▁Augusto	-6772
▁inaugurato	-6773
tismo	-6774
▁1945	-6775
▁offre	-6776
▁riportato	-6777
▁Bell	-6778
▁differenze	-6779
bli	-6780
vine	-6781
▁Essa	-6782
osserva	-6783
▁tentativi	-6784
▁prossimità	-6785
Bo	-6786
Com	-6787
tamento	-6788
▁minimo	-6789
ursioni	-6790
▁medie	-6791
gallo	-6792
▁Indi	-6793
▁tasso	-6794
▁cambiamenti	-6795
▁governatore	-6796
▁stima	-6797
▁prezzo	-6798
▁Claudio	-6799
92	-6800
▁autonomia	-6801
▁1944	-6802
▁austriaco	-6803
▁associazioni	-6804
tui	-6805
▁analisi	-6806
ich	-6807
sis	-6808
▁Est	-6809
genti	-6810
ordio	-6811
▁Mess	-6812
▁prete	-6813
▁dottrina	-6814
▁macchine	-6815
▁asc	-6816
▁amma	-6817
▁demoli	-6818
▁Esistono	-6819
▁contrasto	-6820
Na	-6821
alza	-6822
rista	-6823
▁cere	-6824
▁nessuna	-6825
▁organizzato	-6826
Mad	-6827
▁Nuovo	-6828
▁Campionato	-6829
umanità	-6830
▁interessi	-6831
'"	-6832
ls	-6833
▁ch	-6834
▁Bis	-6835
ssino	-6836
▁Ligu	-6837
▁fronti	-6838
▁nucleare	-6839
▁pesanti	-6840
orbi	-6841
▁rito	-6842
▁pellegr	-6843
▁pianeti	-6844
▁conservazione	-6845
Mar	-6846
cha	-6847
ggiò	-6848
rarsi	-6849
▁1976	-6850
Africa	-6851
▁misure	-6852
▁montagne	-6853
▁stabilito	-6854
▁sinte	-6855
▁ragioni	-6856
▁400	-6857
aiuto	-6858
▁Borg	-6859
▁facile	-6860
incontro	-6861
▁contadini	-6862
▁proposito	-6863
Cor	-6864
▁detti	-6865
▁sugger	-6866
▁Clemente	-6867
▁chiusura	-6868
▁Leo	-6869
▁uscì	-6870
▁ligne	-6871
▁quartieri	-6872
▁necessaria	-6873
47	-6874
▁versi	-6875
▁definisce	-6876
date	-6877
▁refer	-6878
▁relativi	-6879
ziato	-6880
▁tron	-6881
▁lenta	-6882
▁esperienza	-6883
nica	-6884
Pro	-6885
▁ria	-6886
▁tenere	-6887
ctor	-6888
duci	-6889
▁camera	-6890
▁lunghi	-6891
rich	-6892
▁utile	-6893
gentina	-6894
▁impossi	-6895
▁espansione	-6896
metro	-6897
▁agri	-6898
imento	-6899
▁digitale	-6900
▁categorie	-6901
▁otta	-6902
▁firma	-6903
avvento	-6904
▁Strada	-6905
▁consul	-6906
▁acquista	-6907
▁Ves	-6908
mbascia	-6909
▁abbandonato	-6910
▁prestazioni	-6911
gy	-6912
▁Jose	-6913
▁1960	-6914
▁Friuli	-6915
▁parlare	-6916
▁centinaia	-6917
pino	-6918
▁letto	-6919
▁abbi	-6920
▁canali	-6921
▁Acc	-6922
▁2021	-6923
▁Anna	-6924
miglia	-6925
ola	-6926
▁immagina	-6927
▁diam	-6928
▁bassi	-6929
▁dovrebbe	-6930
▁occupata	-6931
intervento	-6932
enni	-6933
ttico	-6934
▁Stre	-6935
▁nessuno	-6936
più	-6937
▁vasto	-6938
▁Trento	-6939
46	-6940
ssolini	-6941
AC	-6942
mbra	-6943
ragona	-6944
▁Brasile	-6945
▁Quattro	-6946
▁rappresentare	-6947
▁Tutti	-6948
▁romane	-6949
▁sormon	-6950
▁americana	-6951
▁ja	-6952
▁botte	-6953
▁spettro	-6954
▁luminosità	-6955
elio	-6956
renza	-6957
riato	-6958
▁1989	-6959
destra	-6960
viste	-6961
▁aposto	-6962
▁CD	-6963
▁Ko	-6964
▁server	-6965
▁Palermo	-6966
▁rinuncia	-6967
▁stazioni	-6968
▁Categoria	-6969
aren	-6970
evano	-6971
▁montu	-6972
▁verità	-6973
▁descrizione	-6974
FA	-6975
▁presi	-6976
▁specifico	-6977
▁fuggi	-6978
▁riven	-6979
ficando	-6980
gazz	-6981
fornia	-6982
▁dipinti	-6983
▁sportiva	-6984
▁classificazione	-6985
ds	-6986
▁colp	-6987
▁bambino	-6988
istituzione	-6989
▁Lun	-6990
▁esce	-6991
▁corse	-6992
▁sposa	-6993
▁teorema	-6994
▁vincendo	-6995
▁Guido	-6996
▁carte	-6997
▁soluzioni	-6998
▁osservazioni	-6999
▁Pin	-7000
riere	-7001
▁potenziale	-7002
versario	-7003
▁automobili	-7004
lamo	-7005
▁Liber	-7006
▁affrontare	-7007
▁parzialmente	-7008
▁‘	-7009
vide	-7010
▁colpito	-7011
▁ritorna	-7012
▁fantasci	-7013
▁televisiva	-7014
▁processione	-7015
▁Internazionale	-7016
strona	-7017
▁canti	-7018
VIII	-7019
ttino	-7020
ellina	-7021
▁originali	-7022
▁proprietario	-7023
▁scorre	-7024
▁300	-7025
▁arco	-7026
estero	-7027
▁legger	-7028
▁mandato	-7029
▁potenze	-7030
▁vertica	-7031
ye	-7032
pola	-7033
▁slo	-7034
▁rimasero	-7035
▁ulteriore	-7036
▁limiti	-7037
▁elettroni	-7038
▁collegamenti	-7039
▁Bus	-7040
▁adi	-7041
▁camm	-7042
▁esecu	-7043
informa	-7044
▁chiuso	-7045
▁esistente	-7046
anu	-7047
▁fondi	-7048
dazione	-7049
▁Regione	-7050
200	-7051
▁sva	-7052
acque	-7053
▁svizz	-7054
▁quadri	-7055
▁impianto	-7056
▁occasioni	-7057
▁profondità	-7058
▁variazioni	-7059
▁precipitazioni	-7060
pisodio	-7061
▁carico	-7062
▁sonora	-7063
tch	-7064
ghese	-7065
pevole	-7066
▁nostra	-7067
ee	-7068
presa	-7069
▁1985	-7070
▁copie	-7071
▁semif	-7072
▁spettacolo	-7073
▁Ara	-7074
parte	-7075
dimensi	-7076
burg	-7077
colari	-7078
articolo	-7079
▁viva	-7080
▁poste	-7081
▁sviluppata	-7082
ducia	-7083
ggeri	-7084
olino	-7085
▁1973	-7086
▁nera	-7087
▁voci	-7088
▁relativo	-7089
tosi	-7090
ccini	-7091
▁pareti	-7092
▁mantenne	-7093
▁indipendenti	-7094
▁possedimenti	-7095
ppie	-7096
ettero	-7097
▁tomba	-7098
▁pensare	-7099
rossa	-7100
▁Austria	-7101
gibile	-7102
zionalità	-7103
venna	-7104
▁inser	-7105
▁affidata	-7106
▁Mussolini	-7107
▁calendario	-7108
62	-7109
▁perso	-7110
▁procedu	-7111
▁riserva	-7112
▁carbonio	-7113
▁tipicamente	-7114
▁Caratteristiche	-7115
ssario	-7116
▁vini	-7117
▁defin	-7118
Associazione	-7119
▁cento	-7120
▁cercò	-7121
▁repubblica	-7122
▁cambiamento	-7123
Fi	-7124
cord	-7125
soft	-7126
▁Ese	-7127
▁Ren	-7128
ht	-7129
quali	-7130
▁ille	-7131
▁inta	-7132
bruzzo	-7133
▁Thomas	-7134
▁pubblicati	-7135
▁traduzione	-7136
▁sufficiente	-7137
▁sot	-7138
collo	-7139
▁Esso	-7140
▁orientali	-7141
fonso	-7142
▁voleva	-7143
bona	-7144
▁Dol	-7145
▁Mai	-7146
▁Tommaso	-7147
▁Alex	-7148
ortiva	-7149
▁dovevano	-7150
essioni	-7151
▁Gruppo	-7152
▁mobili	-7153
▁finalmente	-7154
▁realizzate	-7155
▁ubi	-7156
etter	-7157
▁scambio	-7158
',	-7159
▁pref	-7160
▁regia	-7161
▁segni	-7162
5%	-7163
▁blocco	-7164
▁pagine	-7165
▁stabilì	-7166
▁Italiano	-7167
dt	-7168
Imp	-7169
rla	-7170
▁Max	-7171
▁Pres	-7172
▁Award	-7173
▁seguendo	-7174
▁esponenti	-7175
ssuti	-7176
▁tenuta	-7177
▁uscita	-7178
▁esistenti	-7179
▁individui	-7180
gelo	-7181
▁schiera	-7182
sato	-7183
▁atomi	-7184
▁peste	-7185
▁uguale	-7186
▁dipende	-7187
▁ricoper	-7188
▁rimangono	-7189
ug	-7190
▁«"	-7191
insedia	-7192
▁articoli	-7193
▁praticamente	-7194
elemento	-7195
▁gigante	-7196
espansione	-7197
▁Caro	-7198
▁coro	-7199
autorità	-7200
nano	-7201
▁Cur	-7202
▁Qua	-7203
▁1984	-7204
▁Hill	-7205
▁Unite	-7206
▁appassi	-7207
▁interessato	-7208
ssime	-7209
▁feri	-7210
▁farma	-7211
▁saranno	-7212
▁Dra	-7213
▁schema	-7214
▁ricordo	-7215
▁Pieve	-7216
▁musul	-7217
▁Massimo	-7218
▁giardino	-7219
69	-7220
▁Fil	-7221
▁1986	-7222
▁console	-7223
▁privati	-7224
00.	-7225
steri	-7226
▁vuoto	-7227
ala	-7228
goro	-7229
▁Dia	-7230
lettanti	-7231
ssio	-7232
▁logica	-7233
▁condotto	-7234
▁correnti	-7235
▁storicamente	-7236
81	-7237
AM	-7238
due	-7239
▁scomparsa	-7240
▁March	-7241
▁Bartol	-7242
▁cercare	-7243
▁rafforza	-7244
▁edificata	-7245
my	-7246
ggru	-7247
loga	-7248
▁artigian	-7249
ormi	-7250
▁riscontra	-7251
▁esterna	-7252
NU	-7253
sò	-7254
inché	-7255
▁dette	-7256
▁ridotto	-7257
▁aumentare	-7258
SD	-7259
▁foglie	-7260
▁radici	-7261
▁pendici	-7262
▁fortezza	-7263
▁ispirato	-7264
▁Alta	-7265
cipato	-7266
▁Entra	-7267
▁Verso	-7268
▁totalmente	-7269
▁artificiale	-7270
cho	-7271
uiti	-7272
▁nasco	-7273
▁rifiutò	-7274
▁schiavi	-7275
Ra	-7276
▁Ligure	-7277
▁Svezia	-7278
▁circostanti	-7279
bba	-7280
evali	-7281
▁vince	-7282
▁rinasci	-7283
▁compositore	-7284
▁proprietari	-7285
44	-7286
▁compor	-7287
▁vetture	-7288
▁Inizialmente	-7289
▁rappresentate	-7290
dana	-7291
ardini	-7292
inglese	-7293
▁milanese	-7294
▁California	-7295
-3	-7296
appo	-7297
▁McL	-7298
▁universale	-7299
▁leggermente	-7300
▁attori	-7301
atmosfera	-7302
▁sorgente	-7303
▁spese	-7304
aeroporto	-7305
▁attenzione	-7306
▁dimostrato	-7307
▁sostituzione	-7308
67	-7309
landia	-7310
▁corto	-7311
▁castelli	-7312
▁circolare	-7313
▁deposi	-7314
impianto	-7315
▁esemplari	-7316
geli	-7317
▁Dar	-7318
▁Pier	-7319
▁adia	-7320
▁Carta	-7321
olitico	-7322
▁incorpo	-7323
▁diametro	-7324
▁destinato	-7325
▁paesaggio	-7326
▁confermato	-7327
▁lavoratori	-7328
▁costruzioni	-7329
inione	-7330
▁inferiori	-7331
golari	-7332
▁attre	-7333
▁moltip	-7334
▁presentò	-7335
insediamento	-7336
▁irri	-7337
gliata	-7338
▁brevi	-7339
▁grandezza	-7340
_7	-7341
▁SP	-7342
▁Fro	-7343
▁Var	-7344
▁azione	-7345
▁declino	-7346
▁richieste	-7347
▁partecipato	-7348
ensiva	-7349
▁relative	-7350
fisso	-7351
▁temporale	-7352
▁Gil	-7353
▁topo	-7354
tilità	-7355
▁cosci	-7356
▁Johann	-7357
▁comunica	-7358
▁istituito	-7359
ée	-7360
▁Ag	-7361
Vene	-7362
▁puni	-7363
polare	-7364
▁Lingue	-7365
▁determinato	-7366
27	-7367
bis	-7368
▁selva	-7369
▁citata	-7370
▁correla	-7371
▁produce	-7372
▁superare	-7373
▁messaggio	-7374
agg	-7375
▁genti	-7376
▁Giulia	-7377
cel	-7378
▁organismi	-7379
omenti	-7380
▁famosi	-7381
▁Seicento	-7382
gma	-7383
▁ped	-7384
chità	-7385
▁riceve	-7386
▁seguita	-7387
▁chie	-7388
▁caldo	-7389
▁Disney	-7390
▁piatta	-7391
▁comincia	-7392
orn	-7393
▁6,	-7394
▁2025	-7395
▁santa	-7396
▁Ku	-7397
rità	-7398
▁bro	-7399
▁King	-7400
▁signore	-7401
▁sovietici	-7402
▁avver	-7403
venzione	-7404
▁vicinanza	-7405
▁effettivamente	-7406
venire	-7407
▁Umberto	-7408
▁riconosc	-7409
▁università	-7410
ath	-7411
▁sorti	-7412
▁ricordano	-7413
▁sicuramente	-7414
imm	-7415
ander	-7416
zzarono	-7417
▁privato	-7418
▁ancor	-7419
ttività	-7420
▁prigionieri	-7421
▁Av	-7422
▁Reno	-7423
▁ampiamente	-7424
▁organizzazioni	-7425
▁calore	-7426
▁considerare	-7427
zu	-7428
lavo	-7429
zzar	-7430
sando	-7431
▁1943	-7432
▁ader	-7433
▁fioren	-7434
▁simmet	-7435
▁grafica	-7436
▁vicinanze	-7437
▁circondario	-7438
vari	-7439
▁Gali	-7440
▁porti	-7441
▁ripri	-7442
ggiamenti	-7443
▁consigli	-7444
stin	-7445
▁priva	-7446
▁rista	-7447
ferrato	-7448
▁illustra	-7449
attenzione	-7450
▁potrebbero	-7451
▁conclusione	-7452
43	-7453
chem	-7454
stano	-7455
▁Tran	-7456
▁tiro	-7457
▁sostanza	-7458
allevamento	-7459
jo	-7460
▁nura	-7461
▁preis	-7462
▁Ticino	-7463
▁strati	-7464
▁telesco	-7465
▁normalmente	-7466
▁televisione	-7467
▁Mantova	-7468
▁Ministero	-7469
▁orizz	-7470
▁usando	-7471
▁raggru	-7472
fficienti	-7473
▁On	-7474
uovo	-7475
▁Della	-7476
▁rocca	-7477
▁alberi	-7478
▁cancella	-7479
▁economici	-7480
BM	-7481
▁NA	-7482
fatti	-7483
▁Civi	-7484
▁afri	-7485
▁rosa	-7486
▁colli	-7487
interpretazione	-7488
21	-7489
Asse	-7490
hard	-7491
▁Vati	-7492
▁incluso	-7493
▁rifiuta	-7494
▁servita	-7495
▁Comitato	-7496
▁Giuliano	-7497
villa	-7498
▁Pian	-7499
83	-7500
unzione	-7501
alleanza	-7502
▁riprodu	-7503
▁precisamente	-7504
▁tosc	-7505
▁momenti	-7506
▁ciascuna	-7507
▁produttore	-7508
acido	-7509
trone	-7510
gnazione	-7511
▁fornisce	-7512
▁installa	-7513
▁programmazione	-7514
▁pul	-7515
vente	-7516
▁[...]	-7517
▁petro	-7518
episodio	-7519
▁risultano	-7520
▁ligure	-7521
▁geometria	-7522
▁Fal	-7523
endum	-7524
tarono	-7525
▁automa	-7526
▁sfondo	-7527
▁commissione	-7528
▁Marche	-7529
▁condotti	-7530
▁Sass	-7531
▁trans	-7532
▁minima	-7533
▁limitata	-7534
cker	-7535
▁1979	-7536
▁inga	-7537
cciano	-7538
▁Angeles	-7539
▁essersi	-7540
▁abbandonare	-7541
yr	-7542
▁Ner	-7543
▁dispositivi	-7544
▁ep	-7545
rendo	-7546
▁finché	-7547
▁persino	-7548
El	-7549
▁fila	-7550
ondere	-7551
▁Norman	-7552
▁Sis	-7553
▁1987	-7554
ruzione	-7555
▁collinare	-7556
▁formazioni	-7557
omba	-7558
ccare	-7559
▁mente	-7560
mol	-7561
▁Ze	-7562
urre	-7563
usale	-7564
▁Adige	-7565
▁nemici	-7566
▁scavi	-7567
▁attribu	-7568
▁diventò	-7569
▁lineare	-7570
cea	-7571
idro	-7572
sima	-7573
lizia	-7574
▁Rossi	-7575
visioni	-7576
▁Oriente	-7577
▁fallimento	-7578
▁profondamente	-7579
▁cinematografica	-7580
bini	-7581
▁russa	-7582
▁Microsoft	-7583
▁Nu	-7584
▁1982	-7585
▁profondo	-7586
▁istituita	-7587
▁;	-7588
quet	-7589
▁esser	-7590
▁trattava	-7591
▁tracciato	-7592
▁quotidiano	-7593
▁spirituale	-7594
urb	-7595
▁mio	-7596
▁mand	-7597
ggetto	-7598
▁finire	-7599
▁combattimento	-7600
▁coe	-7601
stare	-7602
incarico	-7603
▁ciascuno	-7604
▁conquistò	-7605
▁equazioni	-7606
▁Federazione	-7607
54	-7608
tea	-7609
▁1927	-7610
▁anime	-7611
▁esteso	-7612
▁Alfonso	-7613
▁violenza	-7614
23	-7615
trico	-7616
▁rami	-7617
▁Nazioni	-7618
▁conduce	-7619
▁filosofo	-7620
▁DC	-7621
damenti	-7622
▁modulo	-7623
▁metallo	-7624
▁rimasta	-7625
▁strategica	-7626
eu	-7627
lene	-7628
▁Comuni	-7629
▁Europe	-7630
▁attive	-7631
▁dipinto	-7632
▁confronto	-7633
▁responsabilità	-7634
pina	-7635
▁Aur	-7636
grafie	-7637
▁enorme	-7638
▁condotta	-7639
▁collegato	-7640
▁cattedrale	-7641
▁ripi	-7642
▁Modena	-7643
▁accordi	-7644
▁consent	-7645
▁sostenere	-7646
▁separazione	-7647
inna	-7648
ccata	-7649
▁cellule	-7650
▁critici	-7651
▁comunali	-7652
▁ritenuto	-7653
università	-7654
rino	-7655
▁Scuola	-7656
▁facili	-7657
bone	-7658
tarie	-7659
▁1968	-7660
▁paci	-7661
▁Parte	-7662
▁termin	-7663
▁organizzata	-7664
pula	-7665
▁Blu	-7666
cesso	-7667
▁Mans	-7668
inanza	-7669
mburgo	-7670
▁Oscar	-7671
▁person	-7672
▁celebri	-7673
▁formale	-7674
▁distante	-7675
▁attribuito	-7676
esten	-7677
▁Massa	-7678
▁dischi	-7679
▁medicina	-7680
▁medioevo	-7681
▁modifica	-7682
enzialmente	-7683
▁ricostruita	-7684
▁funzionamento	-7685
mith	-7686
▁reddi	-7687
▁creata	-7688
altitudine	-7689
▁CO	-7690
▁là	-7691
▁Isa	-7692
▁1988	-7693
▁Giove	-7694
▁varianti	-7695
án	-7696
minio	-7697
▁1975	-7698
▁Princip	-7699
▁federale	-7700
▁qualcosa	-7701
▁Pru	-7702
▁Arti	-7703
▁largo	-7704
▁guidata	-7705
▁urbanis	-7706
▁Bartolomeo	-7707
▁conseguenze	-7708
omma	-7709
▁rie	-7710
▁1000	-7711
▁leggere	-7712
▁annunciato	-7713
té	-7714
nis	-7715
▁Costa	-7716
▁richiede	-7717
unci	-7718
ggiati	-7719
▁accum	-7720
▁tanti	-7721
▁parete	-7722
▁sottra	-7723
▁obbliga	-7724
stronomia	-7725
tipo	-7726
▁Pis	-7727
▁Sia	-7728
strum	-7729
▁agricolo	-7730
cell	-7731
tente	-7732
▁freddo	-7733
geni	-7734
▁Wol	-7735
▁patria	-7736
▁suppor	-7737
▁questioni	-7738
▁Gon	-7739
▁morf	-7740
▁pecu	-7741
odierna	-7742
infanzia	-7743
▁propose	-7744
▁troviamo	-7745
▁considerazione	-7746
vezza	-7747
▁grano	-7748
▁licenza	-7749
▁(3	-7750
cene	-7751
▁Età	-7752
onimi	-7753
▁durò	-7754
ferenza	-7755
▁chiamate	-7756
etre	-7757
▁rim	-7758
zzese	-7759
▁ascol	-7760
▁cifre	-7761
▁imple	-7762
▁ideale	-7763
usalemme	-7764
▁classici	-7765
siamo	-7766
▁1928	-7767
▁McLaren	-7768
▁affermò	-7769
▁distrutta	-7770
end	-7771
▁1983	-7772
▁Alto	-7773
▁Open	-7774
girone	-7775
stella	-7776
landesi	-7777
▁ospitato	-7778
▁sostiene	-7779
28	-7780
alio	-7781
▁ampie	-7782
▁gente	-7783
▁nazista	-7784
▁Wat	-7785
diamo	-7786
▁1978	-7787
▁Mala	-7788
▁Rossa	-7789
▁frase	-7790
▁chiuse	-7791
▁Basilica	-7792
▁osservare	-7793
▁risolvere	-7794
omor	-7795
datura	-7796
▁Africa	-7797
▁chiusa	-7798
▁guardia	-7799
▁professore	-7800
derà	-7801
▁cinta	-7802
▁esibi	-7803
▁norme	-7804
▁supre	-7805
▁ragazzi	-7806
▁regolari	-7807
tria	-7808
▁van	-7809
attore	-7810
hn	-7811
erona	-7812
▁Margh	-7813
▁legami	-7814
▁concesse	-7815
▁magnetico	-7816
▁za	-7817
oscri	-7818
▁Inno	-7819
▁Pesca	-7820
vimento	-7821
▁altret	-7822
ducazione	-7823
To	-7824
▁120	-7825
eschi	-7826
▁elettrico	-7827
▁intervento	-7828
ey	-7829
500	-7830
▁Bari	-7831
▁inviò	-7832
▁realizza	-7833
▁conoscere	-7834
▁qualunque	-7835
▁permettono	-7836
▁Lar	-7837
▁bis	-7838
▁date	-7839
viazione	-7840
▁sostanze	-7841
stor	-7842
▁Ass	-7843
▁Ono	-7844
ologo	-7845
▁aereo	-7846
▁nostro	-7847
▁critico	-7848
▁affinché	-7849
▁chiesetta	-7850
▁collegata	-7851
▁3.	-7852
▁Roy	-7853
▁Sti	-7854
ennino	-7855
▁carri	-7856
▁inglo	-7857
▁sorte	-7858
▁magistra	-7859
▁banca	-7860
▁Salvatore	-7861
▁Monferrato	-7862
zioso	-7863
utente	-7864
▁cifra	-7865
▁ritar	-7866
▁Campania	-7867
lone	-7868
▁Serra	-7869
▁afflu	-7870
▁assumere	-7871
▁commerci	-7872
▁sele	-7873
▁domanda	-7874
▁esperimenti	-7875
▁amministrativo	-7876
56	-7877
voca	-7878
▁sfu	-7879
▁flui	-7880
colata	-7881
▁altezza	-7882
▁sviluppare	-7883
vani	-7884
ssato	-7885
▁1972	-7886
▁Nobel	-7887
▁Prost	-7888
dizioni	-7889
▁muro	-7890
▁centra	-7891
▁guidato	-7892
▁quaranta	-7893
ingegn	-7894
▁corni	-7895
▁Marino	-7896
▁motiva	-7897
▁ridurre	-7898
▁videogio	-7899
▁costruiti	-7900
▁norman	-7901
dovico	-7902
ttendo	-7903
▁tentò	-7904
▁tessi	-7905
▁ricordato	-7906
PR	-7907
▁ucc	-7908
▁Cinquecento	-7909
▁ple	-7910
▁accel	-7911
▁tende	-7912
Su	-7913
circa	-7914
viano	-7915
▁Angelo	-7916
▁sepolto	-7917
ür	-7918
▁1977	-7919
▁legale	-7920
▁rurale	-7921
kh	-7922
strie	-7923
ttivi	-7924
gama	-7925
▁ner	-7926
orzio	-7927
▁comprom	-7928
▁svedese	-7929
▁agricole	-7930
▁desiderio	-7931
▁letteraria	-7932
misti	-7933
▁National	-7934
▁ghiaccio	-7935
▁croci	-7936
▁fiducia	-7937
▁certamente	-7938
Me	-7939
▁Jones	-7940
▁permettere	-7941
▁Gerusalemme	-7942
29	-7943
▁risco	-7944
ggiunta	-7945
▁cucina	-7946
▁imperiali	-7947
▁collezione	-7948
▁liberazione	-7949
well	-7950
▁pie	-7951
▁Chur	-7952
▁rive	-7953
▁britannici	-7954
▁transizione	-7955
▁cibo	-7956
▁spie	-7957
▁Ancora	-7958
▁affaccia	-7959
Bi	-7960
▁36	-7961
cine	-7962
▁Radio	-7963
▁differenzia	-7964
▁copia	-7965
▁Medici	-7966
▁roccia	-7967
▁vicenda	-7968
▁copertura	-7969
▁elettronica	-7970
liana	-7971
▁1940	-7972
▁stradale	-7973
▁sconfitto	-7974
▁censimento	-7975
▁zo	-7976
▁atleti	-7977
▁municipio	-7978
▁preparazione	-7979
iano	-7980
▁pom	-7981
faccia	-7982
▁villaggi	-7983
raneamente	-7984
▁circoscri	-7985
▁registrato	-7986
rado	-7987
▁stanza	-7988
▁continuo	-7989
▁contrapp	-7990
▁interpretazione	-7991
▁Tru	-7992
▁fondò	-7993
gomento	-7994
ms	-7995
gor	-7996
otta	-7997
ucci	-7998
▁racc	-7999
▁Gabri	-8000
▁alter	-8001
▁circos	-8002
▁positivo	-8003
▁teatrale	-8004
anica	-8005
▁1969	-8006
▁discre	-8007
▁avvicin	-8008
esecuzione	-8009
▁garantire	-8010
VD	-8011
pus	-8012
letto	-8013
▁sponda	-8014
▁ridotta	-8015
▁bizantino	-8016
leo	-8017
rezzo	-8018
umacher	-8019
▁voluto	-8020
▁eccessi	-8021
partimento	-8022
▁arrivando	-8023
▁concessione	-8024
erebbe	-8025
▁Magno	-8026
▁razzi	-8027
▁dedicò	-8028
▁Garibal	-8029
VI	-8030
loro	-8031
siste	-8032
▁rame	-8033
ometri	-8034
▁campioni	-8035
▁dibattito	-8036
▁presidenza	-8037
▁specifiche	-8038
▁determinare	-8039
erano	-8040
▁West	-8041
▁socc	-8042
▁aiuto	-8043
truzione	-8044
▁combattere	-8045
%.	-8046
varsi	-8047
Madonna	-8048
▁Schumacher	-8049
49	-8050
▁x	-8051
fos	-8052
▁cann	-8053
▁pazi	-8054
▁scud	-8055
raele	-8056
▁pone	-8057
▁gamma	-8058
ceni	-8059
▁(),	-8060
▁Ann	-8061
▁sonda	-8062
▁guerri	-8063
▁studiare	-8064
▁Biblioteca	-8065
lini	-8066
▁mito	-8067
▁polo	-8068
ficano	-8069
▁litur	-8070
▁sorgenti	-8071
fino	-8072
▁140	-8073
▁1946	-8074
▁1967	-8075
▁jazz	-8076
▁assenza	-8077
▁scultore	-8078
alista	-8079
▁podio	-8080
shington	-8081
▁eseguire	-8082
▁peraltro	-8083
▁discussione	-8084
▁recentemente	-8085
▁Rio	-8086
▁Cine	-8087
▁referendum	-8088
rd	-8089
reste	-8090
▁sfera	-8091
assedio	-8092
gianato	-8093
▁dubbio	-8094
▁(16	-8095
▁Sav	-8096
ampia	-8097
▁Elisa	-8098
▁osser	-8099
▁scritte	-8100
▁sintesi	-8101
▁7,	-8102
▁1974	-8103
▁Furono	-8104
▁diventata	-8105
medi	-8106
▁pred	-8107
▁vigi	-8108
▁architettura	-8109
▁sceneggiatura	-8110
lò	-8111
▁Bia	-8112
stino	-8113
talin	-8114
▁scia	-8115
▁Contra	-8116
▁Ferrara	-8117
So	-8118
▁arbi	-8119
▁intero	-8120
▁propone	-8121
▁sostenuto	-8122
fro	-8123
china	-8124
▁lancia	-8125
▁monumenti	-8126
dh	-8127
gino	-8128
tempo	-8129
▁impos	-8130
▁armoni	-8131
Ale	-8132
fan	-8133
▁risoluzione	-8134
ira	-8135
appar	-8136
▁obiettivi	-8137
ced	-8138
stito	-8139
ensione	-8140
▁incarica	-8141
▁carro	-8142
▁parlato	-8143
▁ingresso	-8144
▁continuare	-8145
▁matematico	-8146
utica	-8147
▁entità	-8148
llazione	-8149
▁prodotta	-8150
andone	-8151
▁indossa	-8152
▁comprese	-8153
▁linguistica	-8154
▁elettromagne	-8155
41	-8156
▁1950	-8157
▁Boni	-8158
▁melo	-8159
anello	-8160
vision	-8161
▁tombe	-8162
▁Universi	-8163
▁affidato	-8164
▁effettuare	-8165
0.000	-8166
▁Vietna	-8167
▁concre	-8168
▁estate	-8169
▁tavola	-8170
▁campana	-8171
▁inviato	-8172
▁sostanzialmente	-8173
sic	-8174
anima	-8175
▁fres	-8176
▁lotte	-8177
▁argento	-8178
▁provinciali	-8179
▁significativo	-8180
▁Proprio	-8181
▁Longobar	-8182
▁asso	-8183
▁muta	-8184
▁conia	-8185
▁assass	-8186
▁Leonardo	-8187
▁giudizio	-8188
__	-8189
lani	-8190
▁pse	-8191
▁Auto	-8192
▁privo	-8193
▁sinis	-8194
minato	-8195
▁cause	-8196
▁parag	-8197
▁Castella	-8198
▁Portogallo	-8199
▁approfon	-8200
▁proposto	-8201
▁concezione	-8202
▁popolarità	-8203
▁giornalista	-8204
▁pasto	-8205
▁pagamento	-8206
▁estensione	-8207
cks	-8208
giò	-8209
opp	-8210
▁Tele	-8211
▁riprende	-8212
coni	-8213
esplo	-8214
▁cogn	-8215
▁pila	-8216
▁dolce	-8217
▁usate	-8218
▁costruite	-8219
estia	-8220
gnola	-8221
▁Vito	-8222
▁fedel	-8223
▁risie	-8224
▁servito	-8225
▁porzione	-8226
▁meccanismo	-8227
ep	-8228
dis	-8229
beri	-8230
peri	-8231
▁Jaco	-8232
▁boni	-8233
▁casu	-8234
ttuali	-8235
impresa	-8236
▁scarsa	-8237
▁aggiunta	-8238
▁incontri	-8239
▁sconosci	-8240
▁spagnoli	-8241
lum	-8242
meo	-8243
▁zu	-8244
eratori	-8245
▁complessa	-8246
pt	-8247
mbino	-8248
tatore	-8249
▁sigla	-8250
▁aumenta	-8251
▁cardinali	-8252
▁cas	-8253
▁isla	-8254
darono	-8255
▁addetti	-8256
skij	-8257
tory	-8258
viene	-8259
▁medesi	-8260
▁sapere	-8261
▁celeste	-8262
▁presenze	-8263
▁conquistare	-8264
ffe	-8265
giu	-8266
ostro	-8267
▁nutri	-8268
▁Cremona	-8269
▁include	-8270
▁Piacenza	-8271
▁Trentino	-8272
▁mantenendo	-8273
rola	-8274
right	-8275
▁accre	-8276
▁Vietnam	-8277
resciallo	-8278
As	-8279
▁sotti	-8280
▁Michel	-8281
▁preghi	-8282
italiano	-8283
▁cariche	-8284
▁spettatori	-8285
▁Ess	-8286
▁egi	-8287
▁Peru	-8288
Aquila	-8289
▁Molte	-8290
▁fanteria	-8291
ray	-8292
cioè	-8293
ropoli	-8294
▁sciol	-8295
▁errore	-8296
▁errori	-8297
▁grosso	-8298
▁controver	-8299
▁continente	-8300
▁controllare	-8301
venne	-8302
▁creando	-8303
▁io	-8304
rini	-8305
▁pis	-8306
▁Bill	-8307
▁pose	-8308
ongono	-8309
▁ordinò	-8310
▁realizzò	-8311
▁utilizzo	-8312
erire	-8313
▁apre	-8314
▁svaria	-8315
▁esterni	-8316
▁contribuì	-8317
▁y	-8318
▁im	-8319
▁Colo	-8320
ggiate	-8321
▁Louis	-8322
▁piana	-8323
▁Garibaldi	-8324
Col	-8325
inn	-8326
quie	-8327
▁allar	-8328
▁cavalli	-8329
▁foresta	-8330
▁favorevole	-8331
osi	-8332
▁Lea	-8333
▁guel	-8334
▁bosco	-8335
▁borghi	-8336
▁diretti	-8337
▁gravita	-8338
▁iniziali	-8339
▁bensì	-8340
▁marca	-8341
▁urbani	-8342
▁venire	-8343
▁moderne	-8344
▁associato	-8345
▁necessari	-8346
▁magnitudine	-8347
hai	-8348
▁Paci	-8349
▁sant	-8350
▁radice	-8351
▁molecole	-8352
▁industrie	-8353
59	-8354
▁coda	-8355
▁acido	-8356
▁Joseph	-8357
▁Vecchio	-8358
▁competizioni	-8359
nando	-8360
gnante	-8361
▁rivelò	-8362
▁disastro	-8363
▁inserita	-8364
▁musicisti	-8365
Per	-8366
▁pru	-8367
cello	-8368
tusia	-8369
▁Mili	-8370
▁alge	-8371
▁codi	-8372
▁tutt	-8373
fabeto	-8374
▁ricom	-8375
▁visse	-8376
▁esseri	-8377
▁maglia	-8378
▁comanda	-8379
42	-8380
win	-8381
▁Star	-8382
onamento	-8383
osamente	-8384
▁potenti	-8385
▁capitali	-8386
▁manoscri	-8387
▁riuscendo	-8388
31	-8389
arese	-8390
▁Margherita	-8391
▁differente	-8392
▁precisione	-8393
▁formalmente	-8394
Ir	-8395
▁Bud	-8396
▁Essi	-8397
▁etru	-8398
▁Sopra	-8399
▁rifugio	-8400
sket	-8401
▁seg	-8402
ttente	-8403
Gu	-8404
▁barocco	-8405
▁tecnici	-8406
▁ricchezza	-8407
▁Washington	-8408
▁Commissione	-8409
gilio	-8410
equipa	-8411
ellenza	-8412
▁esordi	-8413
▁presbi	-8414
▁compresi	-8415
▁giapponesi	-8416
secon	-8417
autunno	-8418
▁Apollo	-8419
▁attore	-8420
▁pacche	-8421
▁rottura	-8422
▁aggiorna	-8423
▁rinvenuti	-8424
▁fortificazioni	-8425
▁Sel	-8426
onate	-8427
▁franchi	-8428
▁portano	-8429
▁impossibile	-8430
▁costituzionale	-8431
ite	-8432
iche	-8433
▁1971	-8434
▁rall	-8435
▁Stalin	-8436
▁rilevante	-8437
ande	-8438
▁postu	-8439
▁Sergio	-8440
▁insigni	-8441
▁parlata	-8442
tas	-8443
▁cantone	-8444
▁decisero	-8445
▁stabilire	-8446
▁esattamente	-8447
▁arma	-8448
▁Casale	-8449
▁separa	-8450
struzioni	-8451
▁limitato	-8452
▁rettangolare	-8453
Gran	-8454
ttari	-8455
▁1981	-8456
gliare	-8457
▁Catania	-8458
▁riparti	-8459
▁avvicina	-8460
▁concetti	-8461
▁ospitare	-8462
mas	-8463
lismo	-8464
turno	-8465
▁fatte	-8466
▁greci	-8467
▁merci	-8468
▁dominante	-8469
▁includono	-8470
▁ritrovamenti	-8471
ssie	-8472
▁accessi	-8473
▁approssima	-8474
▁socialista	-8475
OM	-8476
▁emo	-8477
fasci	-8478
▁volto	-8479
gostino	-8480
▁sorgeva	-8481
▁vulcani	-8482
▁aggiunto	-8483
▁progettato	-8484
▁organizzazione	-8485
cei	-8486
sore	-8487
▁benedet	-8488
▁familiari	-8489
Po	-8490
riva	-8491
resto	-8492
scina	-8493
▁iper	-8494
▁pena	-8495
▁Compa	-8496
▁Teodo	-8497
▁coali	-8498
antichità	-8499
▁esigenze	-8500
gger	-8501
vice	-8502
chill	-8503
Angelo	-8504
▁Colonna	-8505
▁identità	-8506
▁privilegi	-8507
▁circostante	-8508
93	-8509
▁oma	-8510
▁cadde	-8511
▁polin	-8512
▁fattore	-8513
how	-8514
▁Cis	-8515
▁miti	-8516
▁sardo	-8517
riatico	-8518
estensione	-8519
▁espressione	-8520
Ad	-8521
▁Otto	-8522
▁Stru	-8523
▁casta	-8524
▁rocce	-8525
▁sacra	-8526
iscrizione	-8527
▁continentale	-8528
ER	-8529
ade	-8530
asta	-8531
▁zio	-8532
▁aspetta	-8533
▁rilievi	-8534
▁veicoli	-8535
annessione	-8536
sei	-8537
biti	-8538
cago	-8539
Egitto	-8540
assenza	-8541
▁destro	-8542
▁palazzi	-8543
▁articolo	-8544
▁giornate	-8545
▁conservati	-8546
▁dimostrare	-8547
AI	-8548
gru	-8549
▁Sla	-8550
▁cop	-8551
olini	-8552
torni	-8553
desimo	-8554
▁aboli	-8555
▁orizzon	-8556
▁reazioni	-8557
▁significative	-8558
▁Alfre	-8559
▁Comun	-8560
▁Messina	-8561
▁efficace	-8562
▁millennio	-8563
▁crona	-8564
▁organo	-8565
▁simula	-8566
▁Signore	-8567
▁parente	-8568
▁suddiviso	-8569
▁utilizzano	-8570
AN	-8571
urt	-8572
vocato	-8573
▁imper	-8574
▁masse	-8575
▁confin	-8576
,000	-8577
▁plane	-8578
▁propag	-8579
aggiunta	-8580
▁scrittori	-8581
▁Whi	-8582
erare	-8583
▁Tiber	-8584
▁colonie	-8585
▁tipiche	-8586
▁dimostrò	-8587
▁mercanti	-8588
▁Mur	-8589
amico	-8590
ccano	-8591
ggendo	-8592
▁recita	-8593
▁viaggi	-8594
▁gravità	-8595
▁finestre	-8596
cilio	-8597
vegia	-8598
dibile	-8599
▁Musica	-8600
▁capito	-8601
▁sommità	-8602
▁vettore	-8603
▁trattati	-8604
58	-8605
core	-8606
vini	-8607
▁1966	-8608
▁incer	-8609
▁incom	-8610
▁volere	-8611
phi	-8612
ovese	-8613
▁ghib	-8614
▁immi	-8615
▁neve	-8616
▁eretta	-8617
▁austriaca	-8618
▁Longobardi	-8619
▁continuità	-8620
▁archeologico	-8621
Ordine	-8622
▁svolgono	-8623
▁giovanile	-8624
▁variazione	-8625
▁laboratorio	-8626
giata	-8627
▁spicca	-8628
▁disegni	-8629
▁marchio	-8630
▁cappelle	-8631
▁eventuali	-8632
vers	-8633
edero	-8634
▁Tito	-8635
ttenti	-8636
▁Bernardo	-8637
▁candidato	-8638
▁raramente	-8639
pal	-8640
Aragona	-8641
▁marcia	-8642
▁strato	-8643
ologiche	-8644
▁accettò	-8645
▁private	-8646
▁segreto	-8647
▁tendenza	-8648
▁monarchia	-8649
▁Len	-8650
cessore	-8651
ominato	-8652
▁orbita	-8653
▁studente	-8654
▁parlamento	-8655
▁Moro	-8656
▁fior	-8657
▁uscito	-8658
▁Vicenza	-8659
▁recupero	-8660
GC	-8661
ère	-8662
▁acu	-8663
elenco	-8664
▁Piero	-8665
▁terrori	-8666
▁cambiare	-8667
▁superato	-8668
▁concentrazione	-8669
▁ebraico	-8670
▁sh	-8671
▁cala	-8672
▁arrivo	-8673
▁premia	-8674
orientale	-8675
▁riconosciuta	-8676
▁essenzialmente	-8677
Ch	-8678
rami	-8679
esato	-8680
▁Adriano	-8681
▁abbiano	-8682
▁pittura	-8683
▁raccolte	-8684
▁divisioni	-8685
▁iniziativa	-8686
▁conquistato	-8687
fil	-8688
▁cilin	-8689
▁mille	-8690
▁vetta	-8691
▁Cristi	-8692
▁Gallia	-8693
▁facoltà	-8694
▁giudizia	-8695
▁riguardanti	-8696
SO	-8697
wit	-8698
avanza	-8699
▁volle	-8700
oggetto	-8701
▁obiettivo	-8702
▁letterario	-8703
▁creò	-8704
▁concorso	-8705
▁permettendo	-8706
▁Mag	-8707
▁Net	-8708
speci	-8709
acquis	-8710
reggio	-8711
▁Bruno	-8712
▁manca	-8713
▁retta	-8714
▁susci	-8715
▁consegui	-8716
▁situazioni	-8717
▁comprendere	-8718
illa	-8719
▁Ami	-8720
▁dar	-8721
▁cosmo	-8722
▁aristo	-8723
▁colonn	-8724
▁terminò	-8725
▁pratiche	-8726
Ti	-8727
Roma	-8728
▁coi	-8729
▁sba	-8730
▁preesi	-8731
▁statuto	-8732
▁salvezza	-8733
▁punteggio	-8734
mul	-8735
pato	-8736
▁ruoli	-8737
vangeli	-8738
▁provoca	-8739
▁spostamento	-8740
▁Allo	-8741
▁rispar	-8742
▁annuale	-8743
▁riforme	-8744
▁genovese	-8745
▁giornale	-8746
lei	-8747
unga	-8748
▁Fan	-8749
▁res	-8750
tutto	-8751
gonale	-8752
istici	-8753
▁produttori	-8754
kes	-8755
ullo	-8756
polino	-8757
logiche	-8758
zionati	-8759
▁Edo	-8760
▁laurea	-8761
▁Bolzano	-8762
▁decisioni	-8763
▁pressoché	-8764
ulo	-8765
tono	-8766
ggero	-8767
▁Comics	-8768
▁precisa	-8769
▁Istruzione	-8770
-16	-8771
plo	-8772
▁ioni	-8773
▁implica	-8774
▁Ludovico	-8775
▁combinazione	-8776
nese	-8777
▁blas	-8778
▁cambiò	-8779
▁Prussia	-8780
▁arricchi	-8781
Ann	-8782
▁Os	-8783
▁gla	-8784
prese	-8785
▁1961	-8786
▁arci	-8787
▁Lucio	-8788
▁decine	-8789
▁riteneva	-8790
rì	-8791
▁Ya	-8792
▁perdere	-8793
52	-8794
Man	-8795
vorò	-8796
▁recò	-8797
▁benché	-8798
▁contatti	-8799
▁passione	-8800
▁frammenti	-8801
Mo	-8802
▁Marsi	-8803
▁Matteo	-8804
▁ducato	-8805
▁presero	-8806
▁profilo	-8807
▁turistico	-8808
▁passeggeri	-8809
▁Rivoluzione	-8810
▁cristianesimo	-8811
ny	-8812
▁(14	-8813
▁tera	-8814
tonomia	-8815
▁ritirò	-8816
▁capitolo	-8817
▁scoperte	-8818
▁migliorare	-8819
STAT	-8820
▁cessa	-8821
▁quinta	-8822
▁rappresentante	-8823
bali	-8824
▁Cami	-8825
▁ripe	-8826
▁stimo	-8827
quisizione	-8828
▁cosiddetti	-8829
▁chiaramente	-8830
TP	-8831
cos	-8832
▁pad	-8833
ziani	-8834
▁1947	-8835
▁Sede	-8836
▁Lauda	-8837
▁roves	-8838
▁dedicati	-8839
▁sovietico	-8840
▁attribuita	-8841
▁medioevale	-8842
iono	-8843
gliamento	-8844
▁coscienza	-8845
▁caratterizza	-8846
tipi	-8847
▁ges	-8848
cione	-8849
▁1929	-8850
▁consumo	-8851
▁distribuito	-8852
▁interessante	-8853
ziata	-8854
▁finì	-8855
▁farsi	-8856
▁distur	-8857
▁nostri	-8858
▁svolse	-8859
▁abitata	-8860
▁comitato	-8861
▁medesimo	-8862
▁pianoforte	-8863
ack	-8864
scon	-8865
▁Gene	-8866
▁bran	-8867
▁bolla	-8868
▁misteri	-8869
▁coinvolto	-8870
▁raggruppa	-8871
▁cittadinanza	-8872
91	-8873
prin	-8874
▁178	-8875
inata	-8876
verna	-8877
▁Piano	-8878
▁manti	-8879
▁seppur	-8880
▁valuta	-8881
▁vecchi	-8882
▁vocali	-8883
▁combusti	-8884
▁proposte	-8885
uve	-8886
enzi	-8887
gnolo	-8888
▁1939	-8889
▁Mura	-8890
▁argom	-8891
▁affida	-8892
▁ministri	-8893
▁conservata	-8894
▁alternativa	-8895
Alta	-8896
▁177	-8897
entrò	-8898
mblema	-8899
▁Egitto	-8900
▁anziché	-8901
▁reparti	-8902
▁partendo	-8903
▁rimanere	-8904
zionamento	-8905
▁considerate	-8906
▁trattamento	-8907
▁Dipartimento	-8908
OC	-8909
rum	-8910
▁fla	-8911
torica	-8912
▁Opera	-8913
▁giunta	-8914
▁navale	-8915
▁manifes	-8916
▁sinistro	-8917
dove	-8918
remo	-8919
ttare	-8920
▁stamp	-8921
▁sospen	-8922
▁Innocen	-8923
▁applicazione	-8924
▁33	-8925
orum	-8926
enico	-8927
mondo	-8928
tavano	-8929
▁masch	-8930
▁incentra	-8931
ost	-8932
▁GP	-8933
▁Ari	-8934
▁DVD	-8935
▁Hall	-8936
▁inedi	-8937
▁eseguito	-8938
▁fascismo	-8939
▁conosciuti	-8940
▁iniziative	-8941
▁É	-8942
▁ur	-8943
▁Atene	-8944
▁disper	-8945
teo	-8946
▁Flo	-8947
mmeno	-8948
▁1964	-8949
▁omonimo	-8950
▁chitarra	-8951
▁riportata	-8952
giato	-8953
liani	-8954
▁insegna	-8955
▁rivesti	-8956
▁consenso	-8957
▁prestigi	-8958
inda	-8959
leria	-8960
▁Norvegia	-8961
▁influenzato	-8962
▁Data	-8963
▁soffer	-8964
erimento	-8965
▁ricevere	-8966
▁sportivi	-8967
▁Churchill	-8968
▁Ecc	-8969
giorno	-8970
▁verti	-8971
▁brillante	-8972
▁limitrofi	-8973
▁Op	-8974
utore	-8975
▁pietre	-8976
▁ristre	-8977
▁distinzione	-8978
▁registrazione	-8979
57	-8980
BC	-8981
▁Ern	-8982
▁Senna	-8983
▁discesa	-8984
▁divenuta	-8985
▁mostrano	-8986
vet	-8987
zona	-8988
▁amore	-8989
▁salvo	-8990
▁Aristo	-8991
▁Natale	-8992
▁domini	-8993
▁collocato	-8994
▁evoluzione	-8995
▁inaugurata	-8996
▁fili	-8997
▁umane	-8998
▁braccio	-8999
▁provocò	-9000
▁esperienze	-9001
▁sostituire	-9002
▁monumentale	-9003
▁pontificato	-9004
▁riferimenti	-9005
▁accompagnato	-9006
wis	-9007
yle	-9008
topi	-9009
▁basse	-9010
appoggio	-9011
▁conosce	-9012
▁fuci	-9013
▁atmos	-9014
▁incro	-9015
▁formati	-9016
▁contrade	-9017
▁galassie	-9018
▁provviso	-9019
▁specifici	-9020
applicazione	-9021
biltà	-9022
▁anten	-9023
▁patto	-9024
tandosi	-9025
▁rivale	-9026
▁esplici	-9027
▁leggera	-9028
▁1948	-9029
▁Mont	-9030
▁armati	-9031
▁calcola	-9032
▁fisiche	-9033
▁gestire	-9034
▁conferenza	-9035
▁semifinale	-9036
▁Ama	-9037
▁ine	-9038
grati	-9039
▁ideali	-9040
Occidente	-9041
▁tranquil	-9042
istruzione	-9043
▁Ameri	-9044
▁Power	-9045
▁perfe	-9046
▁allena	-9047
▁incomin	-9048
▁allontana	-9049
▁introdotta	-9050
▁soffi	-9051
▁panorama	-9052
▁austriaci	-9053
cipro	-9054
▁Frie	-9055
▁Mino	-9056
▁Plan	-9057
▁Reli	-9058
▁iner	-9059
▁Batta	-9060
▁abbiamo	-9061
▁diviene	-9062
▁medievali	-9063
▁Mary	-9064
▁veli	-9065
▁vent	-9066
▁Media	-9067
entrata	-9068
▁Record	-9069
▁caduti	-9070
▁fredda	-9071
▁firmato	-9072
▁derivare	-9073
▁minerali	-9074
▁discendenti	-9075
▁TV	-9076
▁affari	-9077
▁elevate	-9078
▁rilascia	-9079
▁impegnato	-9080
▁massiccio	-9081
nesi	-9082
inese	-9083
▁cattolici	-9084
▁fantascienza	-9085
fac	-9086
pet	-9087
ordan	-9088
ppure	-9089
▁condivi	-9090
Imperatore	-9091
▁destinata	-9092
▁esistenza	-9093
▁partecipanti	-9094
put	-9095
▁Es	-9096
▁osci	-9097
▁tifo	-9098
ellate	-9099
▁2000,	-9100
▁retti	-9101
▁rischi	-9102
▁Bambino	-9103
▁riforni	-9104
▁stellare	-9105
▁{	-9106
appa	-9107
gnor	-9108
ggono	-9109
loghi	-9110
ziosi	-9111
inizia	-9112
▁crono	-9113
uss	-9114
▁1926	-9115
▁folc	-9116
▁spinta	-9117
▁compati	-9118
▁sacerdote	-9119
Mon	-9120
SCO	-9121
red	-9122
▁Asia	-9123
▁calo	-9124
▁Henry	-9125
▁ragazza	-9126
▁Slo	-9127
issimo	-9128
▁andata	-9129
▁peggio	-9130
▁giudice	-9131
▁schermo	-9132
ederazione	-9133
▁parametri	-9134
▁qualifica	-9135
61	-9136
▁(4	-9137
▁certe	-9138
▁dentro	-9139
▁diedero	-9140
Car	-9141
rismo	-9142
▁pezzo	-9143
▁derivato	-9144
▁invernale	-9145
▁definitivo	-9146
moro	-9147
▁Andr	-9148
▁orna	-9149
ccardo	-9150
▁Taran	-9151
▁Felice	-9152
▁dimora	-9153
▁sotter	-9154
fficienza	-9155
▁definiti	-9156
▁esisteva	-9157
▁attestato	-9158
▁meridionali	-9159
gana	-9160
▁Chicago	-9161
▁singola	-9162
▁distinti	-9163
▁decorazioni	-9164
▁amministrazione	-9165
▁(17	-9166
▁130	-9167
▁glu	-9168
▁olio	-9169
▁larghe	-9170
▁primaria	-9171
his	-9172
zer	-9173
ucli	-9174
▁Comunale	-9175
▁Maurizio	-9176
▁Vittoria	-9177
▁spettacoli	-9178
▁Jer	-9179
▁Anti	-9180
▁sani	-9181
▁Molto	-9182
▁navate	-9183
▁gemella	-9184
▁bellezza	-9185
▁Innocenzo	-9186
▁cristiano	-9187
▁impiegato	-9188
por	-9189
▁1920	-9190
▁1965	-9191
▁Reich	-9192
▁Terme	-9193
▁feudi	-9194
▁moltep	-9195
▁bianchi	-9196
▁recipro	-9197
UR	-9198
▁dro	-9199
▁lin	-9200
▁accer	-9201
▁segnò	-9202
▁Israele	-9203
▁torrenti	-9204
tribuzione	-9205
▁progettazione	-9206
mea	-9207
Andre	-9208
inger	-9209
▁risor	-9210
▁tecnologie	-9211
cti	-9212
feo	-9213
lus	-9214
richi	-9215
▁1962	-9216
▁audio	-9217
▁giocare	-9218
▁spontan	-9219
)"	-9220
fin	-9221
chen	-9222
gher	-9223
intosh	-9224
▁divise	-9225
▁ettari	-9226
▁chimico	-9227
PA	-9228
▁City	-9229
▁hard	-9230
▁migra	-9231
▁Sforza	-9232
▁costituire	-9233
▁statistica	-9234
▁soppressione	-9235
vedi	-9236
▁XXI	-9237
▁primato	-9238
▁difendere	-9239
▁sostituita	-9240
▁clero	-9241
▁tappe	-9242
guardia	-9243
▁pagina	-9244
identità	-9245
▁cercando	-9246
▁elettorale	-9247
▁ispirazione	-9248
▁significativa	-9249
▁Pet	-9250
elles	-9251
▁Lavo	-9252
▁vite	-9253
▁simbole	-9254
▁accettare	-9255
▁ferroviario	-9256
_8	-9257
mai	-9258
mie	-9259
ssone	-9260
edendo	-9261
minata	-9262
▁odier	-9263
issione	-9264
▁annunciò	-9265
▁iniziata	-9266
▁missioni	-9267
▁conflitti	-9268
▁contribuito	-9269
diso	-9270
▁Rena	-9271
▁bella	-9272
verebbe	-9273
▁Piquet	-9274
▁uccelli	-9275
▁sportive	-9276
▁mantenuto	-9277
▁Sebastiano	-9278
fare	-9279
rese	-9280
▁Den	-9281
ardie	-9282
drich	-9283
▁2008,	-9284
▁teori	-9285
▁Manfre	-9286
▁svolto	-9287
▁espressa	-9288
▁incursioni	-9289
mbri	-9290
attrice	-9291
▁Perugia	-9292
▁stipula	-9293
arla	-9294
▁mia	-9295
▁Aldo	-9296
▁2006,	-9297
iro	-9298
gena	-9299
▁1963	-9300
▁Moli	-9301
▁asia	-9302
▁Pietra	-9303
▁racchi	-9304
▁sovietica	-9305
fere	-9306
▁Lee	-9307
▁1958	-9308
▁Agli	-9309
▁Eugen	-9310
▁cospi	-9311
▁opposto	-9312
ulteriore	-9313
▁commedia	-9314
▁facevano	-9315
▁prevista	-9316
▁signoria	-9317
▁scienziati	-9318
63	-9319
▁Hei	-9320
lingu	-9321
▁Suda	-9322
▁lito	-9323
▁prolun	-9324
▁totali	-9325
▁causato	-9326
▁ripreso	-9327
▁trascri	-9328
Asia	-9329
▁eso	-9330
▁Karl	-9331
▁indo	-9332
▁scelte	-9333
▁nemmeno	-9334
autonomia	-9335
▁circondato	-9336
set	-9337
▁Bat	-9338
▁Grand	-9339
▁corti	-9340
opinione	-9341
▁algorit	-9342
▁esprime	-9343
▁considere	-9344
▁fortificato	-9345
alti	-9346
▁altra	-9347
▁giura	-9348
▁Rosario	-9349
▁sciogli	-9350
▁ottenuti	-9351
▁divenendo	-9352
▁condannato	-9353
▁napoleonica	-9354
▁pianeggiante	-9355
EE	-9356
erno	-9357
▁Torri	-9358
▁sparti	-9359
▁storio	-9360
dicesimo	-9361
▁globale	-9362
▁guidati	-9363
▁nobiltà	-9364
▁procura	-9365
opposizione	-9366
▁comprendente	-9367
uolo	-9368
insta	-9369
▁1957	-9370
▁Ford	-9371
▁chiara	-9372
▁Baviera	-9373
▁congiun	-9374
▁settimo	-9375
▁sezioni	-9376
▁quadrato	-9377
▁secondaria	-9378
Do	-9379
ric	-9380
▁Yo	-9381
▁erede	-9382
▁milione	-9383
▁considerando	-9384
Fran	-9385
▁Arn	-9386
betta	-9387
▁aiuta	-9388
▁prati	-9389
▁versa	-9390
▁cupola	-9391
▁distanze	-9392
▁rivalità	-9393
▁trovavano	-9394
-4	-9395
rocco	-9396
▁canta	-9397
▁attesa	-9398
▁segnali	-9399
▁Frazioni	-9400
br	-9401
hip	-9402
▁cis	-9403
▁trian	-9404
▁altresì	-9405
▁stretta	-9406
▁indicata	-9407
▁descrivere	-9408
▁Scho	-9409
▁cron	-9410
▁respi	-9411
▁salva	-9412
▁fedele	-9413
▁bisogna	-9414
▁pastori	-9415
▁pioggia	-9416
▁Macintosh	-9417
bos	-9418
crazia	-9419
gliari	-9420
▁eretto	-9421
▁possiamo	-9422
▁soddisfa	-9423
▁edificato	-9424
▁Mas	-9425
gnando	-9426
▁occupò	-9427
▁svizzero	-9428
--	-9429
▁Ab	-9430
cario	-9431
ziati	-9432
esempio	-9433
▁France	-9434
▁scoppio	-9435
▁affermato	-9436
▁turistica	-9437
▁distinguere	-9438
▁Fron	-9439
▁Marte	-9440
▁Teresa	-9441
▁mantiene	-9442
▁trasformata	-9443
Lu	-9444
▁NASA	-9445
raggio	-9446
▁chiede	-9447
▁pagare	-9448
equipaggio	-9449
▁neoclassi	-9450
▁promuovere	-9451
▁testimoniano	-9452
mel	-9453
king	-9454
pita	-9455
▁Glo	-9456
ciclo	-9457
siano	-9458
▁dici	-9459
▁finito	-9460
▁maritti	-9461
▁statali	-9462
▁Santuario	-9463
▁contemporanei	-9464
%,	-9465
ziana	-9466
lantico	-9467
▁League	-9468
▁attivi	-9469
▁astrona	-9470
▁possano	-9471
▁spiegare	-9472
Sta	-9473
hel	-9474
▁son	-9475
Unità	-9476
vetta	-9477
▁undici	-9478
▁dimostrazione	-9479
Ho	-9480
missi	-9481
▁Testa	-9482
▁bestia	-9483
▁richie	-9484
▁Jacques	-9485
▁indicano	-9486
▁negativo	-9487
▁battaglie	-9488
▁dimissioni	-9489
▁apparteneva	-9490
ju	-9491
▁Aus	-9492
▁Let	-9493
erosi	-9494
▁Otta	-9495
▁immer	-9496
▁amicizia	-9497
▁cominciarono	-9498
▁favor	-9499
▁scopi	-9500
▁Jordan	-9501
▁fossili	-9502
▁ritornò	-9503
▁necropoli	-9504
▁trasformato	-9505
▁gradualmente	-9506
IL	-9507
▁(5	-9508
▁Red	-9509
▁omo	-9510
▁Trek	-9511
▁Altro	-9512
▁rimasti	-9513
▁aggiunge	-9514
▁invasioni	-9515
▁prestigio	-9516
▁consistente	-9517
Chi	-9518
ssano	-9519
▁2009,	-9520
▁Puglia	-9521
▁venduto	-9522
dicazione	-9523
▁connessione	-9524
▁quantistica	-9525
mita	-9526
ester	-9527
gnese	-9528
▁neri	-9529
▁lavorò	-9530
▁avessero	-9531
▁costretti	-9532
▁disputato	-9533
▁costruttori	-9534
ance	-9535
arni	-9536
▁1954	-9537
▁ognuno	-9538
▁diffusi	-9539
▁festival	-9540
tle	-9541
▁pane	-9542
▁minera	-9543
linazione	-9544
▁Olimpiadi	-9545
▁congresso	-9546
▁appartengono	-9547
▁parlamentare	-9548
▁ante	-9549
▁Smith	-9550
▁laghi	-9551
▁energe	-9552
▁debutto	-9553
▁gestito	-9554
▁intende	-9555
▁ragazzo	-9556
▁satellite	-9557
▁caratteristico	-9558
iale	-9559
illu	-9560
letta	-9561
▁moni	-9562
guendo	-9563
▁sacro	-9564
misfero	-9565
▁tavole	-9566
▁Liguria	-9567
▁intelli	-9568
▁tessuto	-9569
▁feudatari	-9570
▁modificato	-9571
anico	-9572
▁tonn	-9573
▁Monza	-9574
esordio	-9575
▁Niccol	-9576
▁alluvi	-9577
▁videro	-9578
▁esercita	-9579
▁alimentare	-9580
▁portoghese	-9581
▁64	-9582
work	-9583
prima	-9584
aumento	-9585
▁presie	-9586
▁avanzata	-9587
▁raccoglie	-9588
▁riconoscere	-9589
kis	-9590
osess	-9591
istitu	-9592
logici	-9593
glieria	-9594
▁creati	-9595
▁guarda	-9596
▁governi	-9597
▁quattor	-9598
▁vissuto	-9599
▁compiere	-9600
▁organizzare	-9601
yoff	-9602
NESCO	-9603
▁Carl	-9604
▁annul	-9605
▁calcia	-9606
▁trovarono	-9607
alia	-9608
▁aprì	-9609
▁gusto	-9610
ologici	-9611
▁futuri	-9612
▁vapore	-9613
▁vertici	-9614
heim	-9615
▁mas	-9616
siemi	-9617
▁quer	-9618
▁tetto	-9619
▁fluvia	-9620
▁tranvia	-9621
▁coalizione	-9622
▁dilettanti	-9623
▁dispositivo	-9624
▁ritrovamento	-9625
ET	-9626
pite	-9627
etano	-9628
▁Armata	-9629
▁piatti	-9630
▁comunista	-9631
▁linguaggi	-9632
lite	-9633
▁Tal	-9634
▁ricchi	-9635
tichetta	-9636
▁Guardia	-9637
▁incontrò	-9638
▁sottostante	-9639
Da	-9640
EC	-9641
edro	-9642
▁Sor	-9643
▁1956	-9644
▁tranne	-9645
▁uscire	-9646
▁assiste	-9647
▁contava	-9648
▁restaurata	-9649
▁Cru	-9650
▁promo	-9651
▁influenze	-9652
gal	-9653
vana	-9654
cinque	-9655
contin	-9656
inismo	-9657
▁calde	-9658
▁estesa	-9659
▁rurali	-9660
▁ammirare	-9661
▁permanente	-9662
mus	-9663
reale	-9664
▁Novara	-9665
▁austro	-9666
▁scelse	-9667
▁costumi	-9668
▁apertura	-9669
▁espresso	-9670
▁suddivisione	-9671
Non	-9672
ast	-9673
gosla	-9674
grande	-9675
▁Lucca	-9676
▁operai	-9677
▁proteine	-9678
▁ricostruito	-9679
▁bombardamenti	-9680
reo	-9681
▁nottu	-9682
▁serve	-9683
▁meteoro	-9684
▁riuscito	-9685
▁prospettiva	-9686
▁cara	-9687
▁Tiberio	-9688
▁restano	-9689
▁stavano	-9690
Appennino	-9691
impe	-9692
▁reclu	-9693
▁economia	-9694
▁conoscenze	-9695
iner	-9696
▁2005,	-9697
▁2010,	-9698
Tra	-9699
▁600	-9700
▁Hel	-9701
liche	-9702
▁partì	-9703
▁riass	-9704
▁salto	-9705
▁Canton	-9706
▁carcere	-9707
▁titolare	-9708
▁avversari	-9709
▁coordinate	-9710
▁discipline	-9711
Ori	-9712
ros	-9713
▁scol	-9714
narono	-9715
▁combattu	-9716
▁giungere	-9717
▁sostenitori	-9718
▁UE	-9719
▁1936	-9720
▁1938	-9721
▁Monta	-9722
azzurro	-9723
▁Center	-9724
▁sicuro	-9725
▁ciascun	-9726
▁Australia	-9727
▁abbandonò	-9728
▁posteriore	-9729
AP	-9730
ré	-9731
mena	-9732
retta	-9733
▁dida	-9734
▁adegu	-9735
▁divisi	-9736
▁speranza	-9737
▁Bonaparte	-9738
▁vescovile	-9739
▁lentamente	-9740
▁conversione	-9741
.”	-9742
SP	-9743
▁Sun	-9744
pedia	-9745
▁somi	-9746
▁sfida	-9747
ggiando	-9748
▁radicale	-9749
▁strategia	-9750
▁pubblicate	-9751
▁sfruttamento	-9752
dari	-9753
Andrea	-9754
▁palco	-9755
▁psico	-9756
▁diminu	-9757
▁vallata	-9758
▁produzioni	-9759
smi	-9760
▁bul	-9761
▁accen	-9762
▁norve	-9763
▁rimos	-9764
▁saggio	-9765
▁facente	-9766
▁navigazione	-9767
▁continuarono	-9768
tudini	-9769
▁Pompe	-9770
▁Confina	-9771
onore	-9772
tanea	-9773
▁rifa	-9774
▁Orsini	-9775
▁Simone	-9776
▁Niccolò	-9777
▁conclude	-9778
bot	-9779
old	-9780
ssari	-9781
trica	-9782
▁patr	-9783
▁stabilità	-9784
cto	-9785
dge	-9786
▁Sali	-9787
▁rocci	-9788
▁lapide	-9789
▁nascon	-9790
▁targhe	-9791
▁prendendo	-9792
fen	-9793
pon	-9794
ugu	-9795
▁Boe	-9796
▁Lei	-9797
▁Rac	-9798
▁Tok	-9799
▁riun	-9800
armata	-9801
▁ovvia	-9802
▁Cappella	-9803
▁Virgilio	-9804
ziò	-9805
rici	-9806
derlo	-9807
▁Conti	-9808
▁lunare	-9809
▁accumula	-9810
▁riportati	-9811
vre	-9812
▁arro	-9813
▁Eventi	-9814
▁datato	-9815
▁destino	-9816
▁giardini	-9817
▁allenatore	-9818
▁circolazione	-9819
▁rinascimentale	-9820
itore	-9821
▁Duca	-9822
▁ultra	-9823
cangelo	-9824
▁giunge	-9825
▁muraria	-9826
▁quadrata	-9827
▁partigiani	-9828
▁anticamente	-9829
▁indipendenza	-9830
ceno	-9831
mista	-9832
▁ISTAT	-9833
▁Premi	-9834
▁Christi	-9835
▁Franchi	-9836
▁Girolamo	-9837
▁derivata	-9838
▁approvato	-9839
▁collocata	-9840
▁progressivo	-9841
▁48	-9842
quino	-9843
▁1930	-9844
▁Ravenna	-9845
▁cortile	-9846
▁gestita	-9847
▁percorsi	-9848
occidentale	-9849
▁effettuato	-9850
▁determinata	-9851
▁manutenzione	-9852
etz	-9853
▁Ovest	-9854
▁cresci	-9855
▁bilancio	-9856
▁conclusa	-9857
;/	-9858
cum	-9859
marca	-9860
stata	-9861
▁1949	-9862
▁Rock	-9863
▁moti	-9864
▁2007,	-9865
▁divina	-9866
▁veneto	-9867
▁Turchia	-9868
urrezione	-9869
▁ottenuta	-9870
ban	-9871
ecce	-9872
▁Lombardo	-9873
▁impedire	-9874
babilmente	-9875
▁musicista	-9876
▁preoccupa	-9877
insegnamento	-9878
▁gal	-9879
danza	-9880
riana	-9881
ometro	-9882
▁spada	-9883
▁vertice	-9884
▁University	-9885
▁arrivarono	-9886
▁proseguire	-9887
▁Lis	-9888
▁Ted	-9889
ezione	-9890
organo	-9891
▁1943,	-9892
▁Davis	-9893
▁animale	-9894
▁dedicate	-9895
▁separati	-9896
▁approccio	-9897
informazione	-9898
▁Bosco	-9899
▁rango	-9900
▁polari	-9901
▁My	-9902
inio	-9903
▁1955	-9904
▁anglo	-9905
▁suoni	-9906
▁Cavali	-9907
onazione	-9908
▁Montana	-9909
▁blocchi	-9910
assemblea	-9911
▁comunisti	-9912
osso	-9913
fferta	-9914
▁Stori	-9915
▁Valen	-9916
▁dintorni	-9917
▁immagine	-9918
▁quindici	-9919
▁descritta	-9920
▁distingue	-9921
▁rilevanti	-9922
▁incremento	-9923
sene	-9924
▁Dei	-9925
▁Mark	-9926
andono	-9927
ennini	-9928
▁rasse	-9929
▁Watson	-9930
▁sottoposto	-9931
▁Ye	-9932
cera	-9933
inga	-9934
▁(10	-9935
▁Basso	-9936
▁Mezzo	-9937
▁preda	-9938
▁idrogeno	-9939
▁malattie	-9940
▁Fondazione	-9941
▁protocollo	-9942
▁Mass	-9943
▁angeli	-9944
▁poesie	-9945
▁destinati	-9946
▁familiare	-9947
ziare	-9948
▁idea	-9949
▁lire	-9950
▁treni	-9951
▁Montal	-9952
▁giunto	-9953
ospedale	-9954
Assemblea	-9955
▁cavalleria	-9956
▁coer	-9957
▁mori	-9958
▁dotati	-9959
▁Fontana	-9960
▁rifiuto	-9961
▁supersti	-9962
▁associata	-9963
▁contengono	-9964
▁opposizione	-9965
▁intellettuali	-9966
elago	-9967
▁1951	-9968
▁Team	-9969
berazione	-9970
blioteche	-9971
▁Riccardo	-9972
▁necessariamente	-9973
metra	-9974
▁1959	-9975
▁Castro	-9976
▁banche	-9977
▁Paperone	-9978
▁suddivisa	-9979
▁acquistato	-9980
▁attraversata	-9981
▁miglioramento	-9982
▁professionale	-9983
NI	-9984
ulto	-9985
▁farlo	-9986
▁socio	-9987
▁alpino	-9988
▁Carriera	-9989
▁dettagli	-9990
colò	-9991
gale	-9992
fonda	-9993
▁buoni	-9994
▁normali	-9995
▁sovrapp	-9996
▁canadese	-9997
▁Shi	-9998
▁sec	-9999
▁Beni	-10000
▁cali	-10001
dicato	-10002
▁interi	-10003
▁diminui	-10004
▁entusia	-10005
timologia	-10006
affer	-10007
ccati	-10008
▁Park	-10009
otball	-10010
▁sussi	-10011
▁Bonifa	-10012
▁estivo	-10013
▁grotte	-10014
▁colloca	-10015
▁equivalente	-10016
▁configurazione	-10017
elia	-10018
ferno	-10019
▁Indu	-10020
▁Lucia	-10021
gliendo	-10022
▁compone	-10023
ormazione	-10024
▁comunicazioni	-10025
engo	-10026
fisi	-10027
loso	-10028
▁Duomo	-10029
▁memori	-10030
▁Intorno	-10031
▁annesso	-10032
▁Vercelli	-10033
▁paesaggi	-10034
▁svolgere	-10035
gby	-10036
ors	-10037
cidi	-10038
teno	-10039
tola	-10040
▁divide	-10041
▁bergama	-10042
▁cognome	-10043
▁autostra	-10044
▁raccolti	-10045
▁regolarmente	-10046
▁pubblicazioni	-10047
");	-10048
giati	-10049
▁2004,	-10050
▁Consid	-10051
▁comparsa	-10052
▁decorazione	-10053
▁Stella	-10054
posizioni	-10055
▁galleria	-10056
▁sorpresa	-10057
lea	-10058
mola	-10059
ulli	-10060
▁Cons	-10061
▁porre	-10062
▁accura	-10063
▁foreste	-10064
▁suonare	-10065
▁necessarie	-10066
▁territoriali	-10067
amm	-10068
▁1933	-10069
albero	-10070
▁pittori	-10071
▁menzione	-10072
▁improvvisa	-10073
▁individuale	-10074
▁perfettamente	-10075
73	-10076
abside	-10077
eranno	-10078
▁conca	-10079
▁altare	-10080
▁Vaticano	-10081
grammi	-10082
▁leone	-10083
▁Spesso	-10084
▁inverni	-10085
▁uccidere	-10086
▁parallelo	-10087
▁Classifica	-10088
▁commissario	-10089
▁th	-10090
atte	-10091
▁Fon	-10092
▁1919	-10093
▁logo	-10094
colore	-10095
▁podes	-10096
▁portati	-10097
▁ritirata	-10098
▁frequente	-10099
▁avvenimenti	-10100
arne	-10101
bola	-10102
▁Corea	-10103
▁manga	-10104
▁termo	-10105
zionare	-10106
▁vivono	-10107
nuovo	-10108
europe	-10109
▁espan	-10110
▁liquido	-10111
▁formando	-10112
▁riconduci	-10113
▁elementare	-10114
▁proteggere	-10115
bon	-10116
▁Abb	-10117
▁Pace	-10118
offerta	-10119
▁Sistema	-10120
▁deputati	-10121
▁Ray	-10122
▁age	-10123
▁fle	-10124
attra	-10125
matica	-10126
Ungheria	-10127
▁concilio	-10128
▁richiesto	-10129
▁sconfitte	-10130
bs	-10131
inare	-10132
vieto	-10133
▁Cavo	-10134
▁mera	-10135
▁dover	-10136
▁incora	-10137
▁fornito	-10138
▁volontari	-10139
▁completato	-10140
▁trasferito	-10141
▁Card	-10142
▁appa	-10143
▁unita	-10144
▁Walter	-10145
▁frutti	-10146
▁vedeva	-10147
▁passati	-10148
▁cittadine	-10149
▁regolamento	-10150
orte	-10151
▁Vita	-10152
▁aria	-10153
▁dira	-10154
▁Lungo	-10155
▁aggiu	-10156
▁casca	-10157
▁Scozia	-10158
ualmente	-10159
zzazioni	-10160
▁mattina	-10161
▁converti	-10162
▁contenere	-10163
▁rimanendo	-10164
▁suddivisi	-10165
▁decisamente	-10166
erne	-10167
▁regg	-10168
ferica	-10169
▁vittima	-10170
▁ritirarsi	-10171
71	-10172
AF	-10173
▁dea	-10174
▁usano	-10175
oratorio	-10176
▁persegui	-10177
▁parteciparono	-10178
bula	-10179
▁epo	-10180
▁impa	-10181
▁nati	-10182
▁Scott	-10183
▁Tutte	-10184
siliano	-10185
▁esperti	-10186
▁affermando	-10187
▁dipendenti	-10188
-18	-10189
diti	-10190
mazia	-10191
▁Assi	-10192
▁avrà	-10193
▁arabo	-10194
▁Contro	-10195
▁dovute	-10196
canestro	-10197
utamente	-10198
▁cavalieri	-10199
esposizione	-10200
moti	-10201
▁Jos	-10202
▁Lucas	-10203
▁neuro	-10204
▁fisici	-10205
dinamica	-10206
▁Corrado	-10207
▁cereali	-10208
▁equilibrio	-10209
gus	-10210
▁nebu	-10211
mentata	-10212
toriali	-10213
▁agenti	-10214
▁status	-10215
▁raggiungendo	-10216
▁International	-10217
▁costantemente	-10218
▁caratterizzati	-10219
▁cinematografico	-10220
_9	-10221
▁Tr	-10222
ctus	-10223
▁agra	-10224
▁voli	-10225
▁Royal	-10226
▁basati	-10227
▁scoprì	-10228
▁fedeltà	-10229
▁viaggia	-10230
▁ghiaccia	-10231
▁dichiarazione	-10232
Is	-10233
▁box	-10234
▁1860	-10235
▁bersa	-10236
▁vetro	-10237
▁Bibbia	-10238
▁natale	-10239
▁abilità	-10240
▁costituì	-10241
intervista	-10242
▁impiegati	-10243
▁scegliere	-10244
arcivescovo	-10245
▁tonnellate	-10246
cis	-10247
anus	-10248
mili	-10249
▁design	-10250
▁omonima	-10251
▁funzionalità	-10252
uch	-10253
▁5.	-10254
velli	-10255
▁1942	-10256
▁Asti	-10257
genito	-10258
▁Lotus	-10259
istoria	-10260
▁Bianco	-10261
▁Unione	-10262
▁capire	-10263
▁riviste	-10264
▁capolavo	-10265
▁collegio	-10266
▁parziale	-10267
iniziativa	-10268
▁colonnello	-10269
▁raccogliere	-10270
▁russi	-10271
▁difese	-10272
▁Essendo	-10273
▁sembrano	-10274
▁personalmente	-10275
▁significativi	-10276
Ol	-10277
rifi	-10278
▁Mauro	-10279
▁marti	-10280
▁preser	-10281
▁Johnson	-10282
▁inverno	-10283
▁folclore	-10284
51	-10285
▁1952	-10286
▁Ross	-10287
▁Celti	-10288
▁causò	-10289
▁prege	-10290
▁risca	-10291
▁andava	-10292
▁aventi	-10293
emisfero	-10294
▁compiuto	-10295
▁entrarono	-10296
▁vegetazione	-10297
Ga	-10298
raeli	-10299
Armata	-10300
▁2011,	-10301
▁ruota	-10302
▁coppie	-10303
▁convinto	-10304
▁rilevanza	-10305
dea	-10306
▁formali	-10307
PC	-10308
mira	-10309
▁rari	-10310
▁futura	-10311
avanzata	-10312
▁distribu	-10313
▁dipendente	-10314
pin	-10315
▁fone	-10316
▁mana	-10317
▁2017,	-10318
▁Volta	-10319
▁insedi	-10320
▁sposato	-10321
▁olimpico	-10322
▁consapevole	-10323
yd	-10324
lock	-10325
▁800	-10326
▁Ban	-10327
bitat	-10328
▁1953	-10329
▁Seren	-10330
▁risto	-10331
randosi	-10332
▁Savona	-10333
▁sforzi	-10334
ggimento	-10335
▁digitali	-10336
▁distretti	-10337
▁specialità	-10338
base	-10339
▁Sche	-10340
▁Pescara	-10341
els	-10342
▁Gard	-10343
mpiego	-10344
▁definì	-10345
▁alleato	-10346
▁positiva	-10347
▁essenziale	-10348
▁4.	-10349
mose	-10350
uria	-10351
▁Fanta	-10352
▁altari	-10353
▁borghe	-10354
▁rivolte	-10355
estremità	-10356
▁distinte	-10357
▁espresse	-10358
▁favorito	-10359
▁rappresentava	-10360
▁Atti	-10361
▁riga	-10362
▁Gonza	-10363
▁appai	-10364
▁auten	-10365
▁Eugenio	-10366
▁approfi	-10367
▁concluso	-10368
▁bus	-10369
tuata	-10370
▁Isole	-10371
▁Cinema	-10372
▁crollo	-10373
▁estera	-10374
▁stanno	-10375
▁Associa	-10376
▁reddito	-10377
▁brasiliano	-10378
53	-10379
top	-10380
Isola	-10381
arcip	-10382
vorno	-10383
▁corro	-10384
▁matura	-10385
▁parroco	-10386
abbandono	-10387
dom	-10388
olio	-10389
pice	-10390
▁Ore	-10391
▁Scala	-10392
▁oscura	-10393
▁cambiato	-10394
▁Francisco	-10395
▁satelliti	-10396
▁visitatori	-10397
▁classificato	-10398
fun	-10399
nea	-10400
▁Tutto	-10401
▁azzur	-10402
▁Edward	-10403
▁esteri	-10404
▁parità	-10405
alfabeto	-10406
▁ridosso	-10407
▁individuare	-10408
ugh	-10409
▁8,	-10410
trio	-10411
▁Cia	-10412
▁Zen	-10413
▁caro	-10414
estern	-10415
ettata	-10416
ternita	-10417
▁angolo	-10418
▁estati	-10419
▁inquad	-10420
▁cattolico	-10421
▁Magi	-10422
▁System	-10423
▁dinamica	-10424
▁olandese	-10425
▁dimentica	-10426
DE	-10427
mond	-10428
verà	-10429
▁ell	-10430
mismo	-10431
▁astra	-10432
▁Trattato	-10433
▁eserciti	-10434
▁mettendo	-10435
▁sessuale	-10436
▁peculiari	-10437
AL	-10438
poi	-10439
tté	-10440
bello	-10441
▁aerea	-10442
ufficio	-10443
▁avente	-10444
▁seguono	-10445
incidente	-10446
▁Mondiale	-10447
▁Pacifico	-10448
▁battendo	-10449
▁medesima	-10450
▁chiu	-10451
ascesa	-10452
cciolo	-10453
ventus	-10454
▁Gusta	-10455
▁recen	-10456
▁Origine	-10457
entazione	-10458
▁Concilio	-10459
▁infrastrutture	-10460
ben	-10461
ffre	-10462
thur	-10463
puter	-10464
▁sena	-10465
▁impro	-10466
▁nominò	-10467
▁culture	-10468
▁fermata	-10469
▁inclusi	-10470
▁singolare	-10471
▁Elisabetta	-10472
▁met	-10473
ranee	-10474
▁Caval	-10475
▁susse	-10476
▁rallenta	-10477
▁Università	-10478
▁sperimentale	-10479
cqu	-10480
craina	-10481
▁2003,	-10482
▁proie	-10483
▁rosse	-10484
▁Madrid	-10485
▁cinesi	-10486
▁pomeri	-10487
▁Cagliari	-10488
▁mostrato	-10489
▁sentenza	-10490
▁selezione	-10491
▁deriverebbe	-10492
▁identificato	-10493
alismo	-10494
▁casal	-10495
▁dolore	-10496
▁spaziali	-10497
▁frequenze	-10498
▁ambientale	-10499
▁permanenza	-10500
▁telescopio	-10501
urs	-10502
▁Zo	-10503
vesi	-10504
▁Musei	-10505
▁bande	-10506
▁rotta	-10507
▁sogno	-10508
▁Tempio	-10509
▁scanda	-10510
inamento	-10511
▁seguirono	-10512
pposi	-10513
genzia	-10514
▁Chiese	-10515
▁eletti	-10516
sistenza	-10517
▁dichiara	-10518
rui	-10519
▁1923	-10520
▁Fort	-10521
▁Scar	-10522
gressi	-10523
stitute	-10524
▁Aposto	-10525
▁Pierre	-10526
▁fuggire	-10527
▁accedere	-10528
▁agricoli	-10529
▁liberali	-10530
▁promosso	-10531
inal	-10532
para	-10533
▁Set	-10534
▁Film	-10535
▁passaggi	-10536
▁Bonifacio	-10537
▁consentire	-10538
▁1927,	-10539
▁veloci	-10540
▁Insieme	-10541
▁sostenne	-10542
▁fondovalle	-10543
▁combattimenti	-10544
mir	-10545
▁Prato	-10546
▁novità	-10547
▁scientifici	-10548
▁ecclesiastica	-10549
▁raggiungibile	-10550
▁frequentemente	-10551
▁2012,	-10552
▁Legge	-10553
▁corde	-10554
▁latte	-10555
▁scaten	-10556
▁volante	-10557
▁bestiame	-10558
▁complica	-10559
▁richiama	-10560
▁confermata	-10561
▁contributi	-10562
▁municipale	-10563
▁consecutive	-10564
gs	-10565
kers	-10566
▁Vla	-10567
gnone	-10568
▁brig	-10569
▁rina	-10570
▁Holly	-10571
▁liberi	-10572
▁miniere	-10573
!"	-10574
dd	-10575
bino	-10576
▁Tel	-10577
▁Tex	-10578
sopra	-10579
ttiche	-10580
▁Resta	-10581
▁coniu	-10582
zionario	-10583
▁affresco	-10584
▁annovera	-10585
▁34	-10586
gone	-10587
▁2014,	-10588
▁Archi	-10589
▁Raffa	-10590
▁mappa	-10591
leneuve	-10592
▁estiva	-10593
▁appaiono	-10594
▁razionali	-10595
▁Tradizioni	-10596
▁Villeneuve	-10597
ffo	-10598
ken	-10599
mida	-10600
pari	-10601
pini	-10602
▁Gale	-10603
▁Note	-10604
▁perde	-10605
▁Esiste	-10606
▁ricorso	-10607
▁risultò	-10608
▁turisti	-10609
▁triangolo	-10610
rli	-10611
ule	-10612
ttle	-10613
osero	-10614
▁voca	-10615
gliate	-10616
glioni	-10617
▁Regio	-10618
ulsione	-10619
▁epoche	-10620
▁rinnova	-10621
▁imprendi	-10622
▁lavorato	-10623
▁Danimarca	-10624
▁Pontificio	-10625
▁rio	-10626
▁usi	-10627
ostra	-10628
▁ridi	-10629
ventura	-10630
▁girato	-10631
▁occhio	-10632
▁compagnie	-10633
▁televisivo	-10634
▁interessanti	-10635
▁stabilimento	-10636
Ta	-10637
▁42	-10638
pper	-10639
zoni	-10640
viato	-10641
▁Gener	-10642
▁penet	-10643
impiego	-10644
▁Leopol	-10645
▁cugino	-10646
▁Alleati	-10647
▁Situato	-10648
▁mediter	-10649
▁avventure	-10650
▁irlandese	-10651
▁fotografia	-10652
ety	-10653
▁aerop	-10654
▁molta	-10655
▁Canale	-10656
▁tendono	-10657
▁frontiera	-10658
▁sovranità	-10659
▁contraddist	-10660
urn	-10661
chesi	-10662
desse	-10663
messa	-10664
▁apri	-10665
▁Borro	-10666
▁unito	-10667
▁difficili	-10668
▁Aristotele	-10669
▁effettuati	-10670
varo	-10671
▁Ada	-10672
▁aral	-10673
umendo	-10674
▁regni	-10675
▁zucch	-10676
▁settiman	-10677
▁anteriore	-10678
Hz	-10679
▁×	-10680
mali	-10681
▁Die	-10682
▁Nero	-10683
▁promul	-10684
▁abbattu	-10685
▁indagini	-10686
▁interpreta	-10687
manti	-10688
inista	-10689
▁Phili	-10690
▁alber	-10691
inaggio	-10692
▁alimentari	-10693
▁imperatori	-10694
ull	-10695
▁"-	-10696
▁1859	-10697
▁inna	-10698
▁saga	-10699
▁2001,	-10700
▁pesce	-10701
inzione	-10702
▁omaggio	-10703
▁terrestri	-10704
▁costituiva	-10705
▁presentava	-10706
dei	-10707
▁Deci	-10708
▁sosta	-10709
▁Gaetano	-10710
▁criteri	-10711
▁innalza	-10712
▁sembrava	-10713
▁Gor	-10714
ssola	-10715
▁Brab	-10716
▁cita	-10717
▁Terza	-10718
▁sping	-10719
▁rigoro	-10720
omicidio	-10721
▁Costanzo	-10722
▁protesta	-10723
▁Tir	-10724
▁Gala	-10725
Irlanda	-10726
▁giganti	-10727
▁rendono	-10728
▁Superiore	-10729
▁introdusse	-10730
▁permetteva	-10731
ges	-10732
▁Valli	-10733
▁legna	-10734
▁entrata	-10735
▁eseguita	-10736
▁predomin	-10737
▁costrinse	-10738
▁musulmani	-10739
▁potessero	-10740
▁rappresentati	-10741
Oro	-10742
til	-10743
foni	-10744
▁Rus	-10745
▁gua	-10746
▁ind	-10747
▁Lewis	-10748
▁Space	-10749
▁Virgin	-10750
▁salvare	-10751
▁Pertanto	-10752
▁Friedrich	-10753
▁dovettero	-10754
▁effettuata	-10755
della	-10756
onoma	-10757
▁Fioren	-10758
▁salita	-10759
▁margine	-10760
▁assegnata	-10761
▁completata	-10762
▁composizioni	-10763
▁Pen	-10764
▁Wei	-10765
▁Bach	-10766
▁tene	-10767
▁turb	-10768
▁Natura	-10769
▁anelli	-10770
▁taglio	-10771
▁playoff	-10772
▁Centrale	-10773
▁andarono	-10774
▁parentesi	-10775
▁1941	-10776
▁Alber	-10777
▁Commo	-10778
▁Ancona	-10779
▁valida	-10780
originale	-10781
▁affianca	-10782
▁allontan	-10783
▁giudicato	-10784
▁preghiera	-10785
▁gravemente	-10786
▁Serenissima	-10787
tinera	-10788
▁Siria	-10789
▁sangu	-10790
▁angoli	-10791
▁priori	-10792
▁traman	-10793
▁teorica	-10794
▁prodotte	-10795
▁proseguì	-10796
▁Comunista	-10797
▁altitudine	-10798
▁scientifiche	-10799
gese	-10800
ulta	-10801
▁Livorno	-10802
▁cerchio	-10803
▁addestra	-10804
▁ottennero	-10805
▁altrimenti	-10806
▁Fel	-10807
▁Jim	-10808
▁Tes	-10809
brica	-10810
erate	-10811
rosso	-10812
▁tasse	-10813
intento	-10814
▁entrato	-10815
▁requisi	-10816
▁scambia	-10817
▁situati	-10818
▁negativa	-10819
autostrada	-10820
▁dri	-10821
▁1935	-10822
▁viti	-10823
▁morire	-10824
▁sinteti	-10825
▁Ministro	-10826
▁panchina	-10827
▁propriamente	-10828
gol	-10829
har	-10830
▁IBM	-10831
▁rapido	-10832
▁uguali	-10833
▁polvere	-10834
▁chiedere	-10835
▁Promozione	-10836
▁maresciallo	-10837
▁scioglimento	-10838
unda	-10839
▁Adol	-10840
▁Gine	-10841
▁arca	-10842
ratori	-10843
▁mosse	-10844
▁rispose	-10845
▁collegati	-10846
▁recuperare	-10847
▁documentazione	-10848
▁eva	-10849
ssina	-10850
▁luna	-10851
▁integ	-10852
conosci	-10853
▁marchi	-10854
▁sfuggi	-10855
▁ospedale	-10856
▁soggiorno	-10857
sar	-10858
stini	-10859
▁Campa	-10860
▁Poggio	-10861
▁apparve	-10862
▁impatto	-10863
▁Sportiva	-10864
▁finestra	-10865
▁minoranza	-10866
▁operativi	-10867
▁calcistica	-10868
▁istruzioni	-10869
guo	-10870
mari	-10871
putato	-10872
▁paura	-10873
▁profu	-10874
▁papale	-10875
▁rifugi	-10876
▁tornei	-10877
▁solenne	-10878
▁angolare	-10879
mpere	-10880
minare	-10881
▁André	-10882
cellona	-10883
▁impressi	-10884
▁vantaggi	-10885
▁Avi	-10886
▁Sen	-10887
▁pseud	-10888
▁vecchie	-10889
▁continue	-10890
medio	-10891
▁inno	-10892
▁aperti	-10893
▁riscal	-10894
▁serata	-10895
▁Tolomeo	-10896
▁propaganda	-10897
▁unicamente	-10898
sol	-10899
▁Dy	-10900
▁gia	-10901
▁Pino	-10902
▁tetra	-10903
▁Molise	-10904
▁vendite	-10905
▁pareggio	-10906
▁stellari	-10907
IT	-10908
bl	-10909
assa	-10910
▁1914	-10911
▁Regina	-10912
▁ruderi	-10913
acquisto	-10914
▁aiutare	-10915
▁devozione	-10916
gali	-10917
stat	-10918
▁1924	-10919
▁Servi	-10920
▁battuto	-10921
▁colleghi	-10922
▁teatrali	-10923
inascimento	-10924
▁ambientali	-10925
▁longobarda	-10926
▁architettonico	-10927
▁Rol	-10928
unicip	-10929
▁terzi	-10930
▁Newton	-10931
▁femminili	-10932
▁monoposto	-10933
▁passarono	-10934
▁trasformazioni	-10935
▁interpretazioni	-10936
ras	-10937
pace	-10938
uneo	-10939
▁1937	-10940
▁sorse	-10941
▁accuse	-10942
▁uccisi	-10943
▁fumetto	-10944
▁Generale	-10945
ak	-10946
cuno	-10947
▁Bron	-10948
▁Mand	-10949
▁Bassa	-10950
ettando	-10951
▁proven	-10952
▁miracolo	-10953
▁nucleari	-10954
▁compongono	-10955
▁registrare	-10956
▁sostengono	-10957
▁piattaforma	-10958
▁protestante	-10959
▁apparentemente	-10960
hy	-10961
pidi	-10962
▁ritmo	-10963
▁canoni	-10964
▁ricono	-10965
▁maestri	-10966
▁crescere	-10967
▁tastiera	-10968
▁fondatori	-10969
▁corrispondenti	-10970
petto	-10971
▁trama	-10972
▁visuali	-10973
▁monarchi	-10974
▁disponibilità	-10975
SB	-10976
auri	-10977
nici	-10978
sivi	-10979
unio	-10980
wser	-10981
▁DPR	-10982
nella	-10983
zzante	-10984
▁confra	-10985
▁Turismo	-10986
▁Juventus	-10987
▁causando	-10988
▁giunsero	-10989
▁verticale	-10990
interazione	-10991
▁matematici	-10992
▁scolastico	-10993
ev	-10994
ès	-10995
onanza	-10996
▁altern	-10997
▁impegno	-10998
▁insiemi	-10999
▁adottata	-11000
▁iniziare	-11001
▁parallela	-11002
▁comprendono	-11003
▁identificare	-11004
▁1925	-11005
▁pall	-11006
▁Georg	-11007
▁State	-11008
▁depor	-11009
▁digni	-11010
▁sinto	-11011
▁ottimi	-11012
▁rimpia	-11013
▁accolto	-11014
▁opposta	-11015
▁venisse	-11016
▁prosegue	-11017
▁abbandonata	-11018
Adda	-11019
dolo	-11020
▁pop	-11021
zzini	-11022
▁macro	-11023
▁Albert	-11024
▁Latina	-11025
▁frutta	-11026
▁cornice	-11027
▁nazisti	-11028
▁Paperino	-11029
▁teologia	-11030
▁ritrovati	-11031
▁determinante	-11032
▁professionisti	-11033
100	-11034
Ver	-11035
▁Zan	-11036
▁rad	-11037
iller	-11038
andolo	-11039
aquila	-11040
▁fauna	-11041
▁silen	-11042
▁tipologia	-11043
▁cosiddette	-11044
▁costituiti	-11045
▁presentare	-11046
▁CP	-11047
Anna	-11048
▁Nato	-11049
▁cavo	-11050
▁Linux	-11051
▁venga	-11052
Oriente	-11053
▁natali	-11054
▁riempi	-11055
idrogeno	-11056
▁fontana	-11057
▁uniforme	-11058
▁Finlandia	-11059
▁attestata	-11060
▁modificare	-11061
▁particella	-11062
▁espressioni	-11063
-15	-11064
nate	-11065
plice	-11066
UNESCO	-11067
oniere	-11068
▁Banca	-11069
▁atter	-11070
▁suona	-11071
mmatica	-11072
▁andato	-11073
istituto	-11074
▁materie	-11075
▁istituti	-11076
▁medaglie	-11077
▁neutroni	-11078
▁applicata	-11079
▁soppresso	-11080
▁funzionari	-11081
▁decadimento	-11082
▁ful	-11083
logio	-11084
quale	-11085
▁Riva	-11086
▁pann	-11087
ducato	-11088
glienza	-11089
▁azienda	-11090
▁ceramica	-11091
▁Religione	-11092
▁sfruttare	-11093
▁consentito	-11094
cela	-11095
▁Sur	-11096
▁gotico	-11097
▁tifosi	-11098
▁specula	-11099
▁indietro	-11100
ML	-11101
ço	-11102
blo	-11103
vella	-11104
▁1934	-11105
▁Dire	-11106
▁Land	-11107
▁Manu	-11108
amente	-11109
▁Brown	-11110
▁tagli	-11111
▁Contea	-11112
▁lezioni	-11113
▁passata	-11114
▁laterale	-11115
▁osservato	-11116
▁Barcellona	-11117
▁raggiungono	-11118
psi	-11119
▁9,	-11120
▁Joe	-11121
▁zar	-11122
gherese	-11123
▁crebbe	-11124
▁feriti	-11125
ziamento	-11126
▁incarico	-11127
▁circondata	-11128
▁riprendere	-11129
▁settentrionali	-11130
geo	-11131
olfo	-11132
omio	-11133
▁2013,	-11134
▁Acqua	-11135
▁voler	-11136
▁Intanto	-11137
▁larghezza	-11138
▁sno	-11139
creto	-11140
▁accon	-11141
▁golfo	-11142
▁mammi	-11143
▁perif	-11144
▁estese	-11145
▁slalom	-11146
▁College	-11147
▁annessa	-11148
▁complesse	-11149
▁segnalare	-11150
▁potenziali	-11151
1%	-11152
▁152	-11153
▁Gau	-11154
▁Nar	-11155
▁Cava	-11156
▁vela	-11157
▁Tokyo	-11158
estione	-11159
▁rovine	-11160
▁elevati	-11161
▁impulso	-11162
▁aggiunse	-11163
▁anticipa	-11164
▁definite	-11165
▁generato	-11166
▁esprimere	-11167
▁raffigura	-11168
▁traguardo	-11169
▁demografico	-11170
Ni	-11171
▁|	-11172
hese	-11173
▁DNA	-11174
▁1921	-11175
▁dicio	-11176
▁cedette	-11177
▁composte	-11178
▁divenire	-11179
▁favorire	-11180
▁IP	-11181
sina	-11182
▁Kir	-11183
preso	-11184
▁Casal	-11185
▁allun	-11186
▁licen	-11187
▁sesso	-11188
sazione	-11189
▁Gianni	-11190
▁Salerno	-11191
▁allesti	-11192
▁molteplici	-11193
▁disposizioni	-11194
dus	-11195
quile	-11196
verse	-11197
▁nudo	-11198
▁poeti	-11199
▁trage	-11200
▁dovuti	-11201
▁bianche	-11202
mmacolata	-11203
▁bonifica	-11204
▁condusse	-11205
▁Argentina	-11206
IM	-11207
▁10,	-11208
▁brev	-11209
endolo	-11210
▁colpì	-11211
▁diffon	-11212
▁veicolo	-11213
▁costiera	-11214
▁molecola	-11215
▁narrativa	-11216
▁esecuzione	-11217
Pre	-11218
tarsi	-11219
▁simpa	-11220
versione	-11221
▁friulana	-11222
eronautica	-11223
Te	-11224
wick	-11225
ciati	-11226
disce	-11227
▁Golfo	-11228
▁Cavour	-11229
▁Champi	-11230
▁tennis	-11231
▁segnato	-11232
▁Campionati	-11233
▁ricercatori	-11234
▁comportamenti	-11235
vy	-11236
hat	-11237
▁(6	-11238
dona	-11239
lero	-11240
▁You	-11241
ssico	-11242
fisica	-11243
strato	-11244
▁Passo	-11245
▁staff	-11246
▁barone	-11247
▁ceduto	-11248
▁rovina	-11249
▁quadrati	-11250
▁verosimi	-11251
CO	-11252
ssò	-11253
▁38	-11254
iodo	-11255
lana	-11256
aboli	-11257
rerie	-11258
▁Palio	-11259
▁Verdi	-11260
▁treno	-11261
▁Romania	-11262
▁derivati	-11263
▁ossigeno	-11264
▁procedura	-11265
inc	-11266
pua	-11267
zoto	-11268
▁Hor	-11269
▁Mani	-11270
▁rati	-11271
▁dissi	-11272
▁piede	-11273
▁Edoardo	-11274
▁Renault	-11275
▁Borromeo	-11276
▁riunione	-11277
▁striscia	-11278
entroterra	-11279
mbasciatore	-11280
On	-11281
tha	-11282
etud	-11283
▁Kie	-11284
sotto	-11285
accusa	-11286
▁Ander	-11287
▁Impor	-11288
▁arabi	-11289
▁Organi	-11290
▁citati	-11291
▁client	-11292
▁accredi	-11293
▁Sudafrica	-11294
▁conquistando	-11295
▁Lom	-11296
▁Soli	-11297
scenti	-11298
▁abbre	-11299
▁School	-11300
▁vocale	-11301
▁Assunta	-11302
▁Marcello	-11303
▁distacco	-11304
▁soccorso	-11305
▁aggregato	-11306
▁elementari	-11307
approvazione	-11308
-6	-11309
▁Big	-11310
▁Ken	-11311
obbli	-11312
▁Fabri	-11313
▁ripeti	-11314
urazione	-11315
▁inclusa	-11316
▁occorre	-11317
▁riescono	-11318
▁pubblicare	-11319
▁gravitazionale	-11320
rur	-11321
ossa	-11322
abate	-11323
▁aspi	-11324
▁spedi	-11325
instein	-11326
archivio	-11327
▁esterne	-11328
▁accettato	-11329
▁celebrare	-11330
▁producono	-11331
▁modificata	-11332
▁Rinascimento	-11333
san	-11334
▁St	-11335
ille	-11336
anzer	-11337
astro	-11338
endone	-11339
▁schier	-11340
▁dicendo	-11341
_11	-11342
▁Pes	-11343
▁usu	-11344
▁festi	-11345
Abruzzo	-11346
▁armata	-11347
▁solido	-11348
▁romanico	-11349
gregazione	-11350
▁cum	-11351
vedere	-11352
▁danza	-11353
▁emana	-11354
▁scale	-11355
▁Esempi	-11356
▁intesa	-11357
▁squali	-11358
▁Benevento	-11359
▁derivazione	-11360
▁Quattrocento	-11361
_12	-11362
gole	-11363
▁Dre	-11364
▁Muse	-11365
▁ossa	-11366
attivo	-11367
▁enormi	-11368
▁medici	-11369
▁Platone	-11370
▁Records	-11371
▁portava	-11372
▁scacchi	-11373
▁senatore	-11374
▁disputata	-11375
▁risultava	-11376
▁diminuzione	-11377
cta	-11378
▁37	-11379
-199	-11380
borò	-11381
cari	-11382
▁mass	-11383
istola	-11384
▁mesco	-11385
▁Carlos	-11386
▁Marvel	-11387
▁cedere	-11388
▁lanciato	-11389
▁proteste	-11390
▁trascura	-11391
▁rivendica	-11392
▁appositamente	-11393
▁Ani	-11394
▁Lodi	-11395
▁UEFA	-11396
▁geno	-11397
gruppo	-11398
▁nozze	-11399
▁studioso	-11400
▁pontificio	-11401
dimensionale	-11402
ror	-11403
ener	-11404
▁Fia	-11405
▁Brun	-11406
▁ferma	-11407
vecchia	-11408
▁grotta	-11409
▁mobile	-11410
▁Trieste	-11411
▁comandi	-11412
▁arrestato	-11413
▁donazione	-11414
▁periodica	-11415
▁sviluppati	-11416
▁finanziario	-11417
sey	-11418
▁OS	-11419
tions	-11420
dettero	-11421
▁Bianca	-11422
▁Corona	-11423
▁albero	-11424
bla	-11425
▁Elio	-11426
colato	-11427
cultura	-11428
▁unisce	-11429
▁batteria	-11430
▁argomenti	-11431
▁esecutivo	-11432
▁fondamenta	-11433
▁presbiterio	-11434
day	-11435
cessori	-11436
▁ritenuta	-11437
▁attaccare	-11438
bach	-11439
▁Lie	-11440
mentò	-11441
▁1918	-11442
▁unici	-11443
onalità	-11444
▁Augusta	-11445
▁ponendo	-11446
▁Sassonia	-11447
▁videogiochi	-11448
cee	-11449
tese	-11450
▁Tec	-11451
▁Green	-11452
▁Emilio	-11453
▁penali	-11454
▁perdendo	-11455
▁Cartagine	-11456
▁Regionale	-11457
▁artigianali	-11458
▁spiegazione	-11459
▁Esp	-11460
▁Jan	-11461
ficia	-11462
ssare	-11463
▁grani	-11464
▁incar	-11465
▁scende	-11466
▁analoga	-11467
▁riserve	-11468
▁dominato	-11469
▁protetta	-11470
▁dedicarsi	-11471
▁possedeva	-11472
▁revisione	-11473
▁affiancato	-11474
IP	-11475
lì	-11476
arch	-11477
ebra	-11478
gion	-11479
miti	-11480
▁Aga	-11481
▁bib	-11482
▁Hein	-11483
▁inti	-11484
▁rimb	-11485
▁pesci	-11486
Venezia	-11487
origina	-11488
▁semina	-11489
▁Comunque	-11490
▁corretta	-11491
▁tensioni	-11492
▁sormontato	-11493
▁apparizione	-11494
▁complessiva	-11495
▁Black	-11496
▁difen	-11497
▁muore	-11498
▁lettori	-11499
▁singole	-11500
▁filosofi	-11501
abolizione	-11502
▁bizantina	-11503
▁ricostitu	-11504
umibilmente	-11505
▁effettuate	-11506
▁occupazione	-11507
▁valutazione	-11508
goni	-11509
▁163	-11510
▁Pir	-11511
tropo	-11512
▁Hans	-11513
▁Seri	-11514
scenza	-11515
▁Annibale	-11516
▁condurre	-11517
▁denuncia	-11518
▁diventano	-11519
▁confluenza	-11520
/2	-11521
pta	-11522
mule	-11523
messo	-11524
▁Love	-11525
▁2002,	-11526
▁poveri	-11527
ttamento	-11528
▁viventi	-11529
▁sentiero	-11530
▁compaiono	-11531
▁raggiunta	-11532
▁39	-11533
▁uo	-11534
enga	-11535
turn	-11536
▁Bob	-11537
▁1932	-11538
centro	-11539
ennale	-11540
monica	-11541
▁Morte	-11542
▁Setti	-11543
sercito	-11544
▁raccom	-11545
▁disposti	-11546
▁scultura	-11547
▁Battaglia	-11548
▁tribunale	-11549
▁raggiunsero	-11550
▁riproduzione	-11551
▁bombardamento	-11552
▁duro	-11553
▁luci	-11554
▁scen	-11555
ssette	-11556
▁2019,	-11557
▁Mille	-11558
▁Confer	-11559
▁intensi	-11560
orchestra	-11561
▁cattedra	-11562
▁organizzati	-11563
▁Ugo	-11564
▁Arno	-11565
▁Bren	-11566
▁civico	-11567
▁Gonzaga	-11568
▁costume	-11569
▁messaggi	-11570
▁complessità	-11571
▁velocemente	-11572
-5	-11573
MS	-11574
/20	-11575
Abb	-11576
ach	-11577
zone	-11578
minale	-11579
▁2015,	-11580
▁convi	-11581
▁spinse	-11582
▁cammino	-11583
▁polacco	-11584
▁delibera	-11585
▁mostrare	-11586
▁raccolto	-11587
▁appartenne	-11588
▁particolar	-11589
▁restaurato	-11590
▁anniversario	-11591
▁mantenimento	-11592
▁fortificazione	-11593
▁1922	-11594
▁teso	-11595
rinale	-11596
▁2016,	-11597
▁Attra	-11598
▁ospitò	-11599
▁soppre	-11600
▁contare	-11601
▁ribatte	-11602
eccezione	-11603
▁52	-11604
uole	-11605
ccola	-11606
erici	-11607
▁Clar	-11608
▁Rapp	-11609
ettive	-11610
▁astro	-11611
Romagna	-11612
▁Varese	-11613
▁codici	-11614
▁dissol	-11615
▁funzion	-11616
▁acquistò	-11617
▁galassia	-11618
▁commemora	-11619
▁mitologia	-11620
3%	-11621
vì	-11622
▁47	-11623
▁250	-11624
formi	-11625
mbrogio	-11626
▁Arthur	-11627
▁adulti	-11628
▁capelli	-11629
▁longobardo	-11630
▁molecolare	-11631
osservazione	-11632
▁imi	-11633
▁Pana	-11634
▁saba	-11635
zzarsi	-11636
▁calda	-11637
secondo	-11638
▁Lugano	-11639
▁impose	-11640
▁Hollywood	-11641
▁menzionato	-11642
▁informatica	-11643
fore	-11644
tton	-11645
Opera	-11646
▁rare	-11647
▁Rosso	-11648
celliere	-11649
▁browser	-11650
▁scudetto	-11651
▁spiaggia	-11652
▁Lor	-11653
▁tol	-11654
erità	-11655
messe	-11656
▁suon	-11657
enorme	-11658
▁anello	-11659
▁rientro	-11660
▁corretto	-11661
▁ritratto	-11662
▁Socialista	-11663
▁predecessore	-11664
AS	-11665
lito	-11666
▁Bet	-11667
▁Haw	-11668
gnana	-11669
▁Laur	-11670
▁suff	-11671
▁clini	-11672
▁Presso	-11673
▁tramon	-11674
▁imbarca	-11675
▁trasmesso	-11676
▁nettamente	-11677
▁repressione	-11678
vič	-11679
▁Fis	-11680
chissi	-11681
zzanti	-11682
▁India	-11683
▁ammon	-11684
▁Biagio	-11685
▁ospite	-11686
▁certezza	-11687
▁primario	-11688
▁vegetali	-11689
▁pastorale	-11690
▁sepoltura	-11691
misero	-11692
▁scarsi	-11693
▁sforzo	-11694
▁violenta	-11695
▁pressioni	-11696
▁artistiche	-11697
▁conservate	-11698
▁Bil	-11699
▁Sau	-11700
omani	-11701
ventù	-11702
▁1944,	-11703
▁1990,	-11704
▁musei	-11705
▁saggi	-11706
▁tante	-11707
▁famose	-11708
▁andando	-11709
Australia	-11710
▁evidenti	-11711
▁malgrado	-11712
▁retrocessione	-11713
▁esplicitamente	-11714
IC	-11715
▁75	-11716
prono	-11717
vismo	-11718
▁Cesa	-11719
▁veste	-11720
▁prezzi	-11721
▁ricord	-11722
▁Borbone	-11723
▁fiscale	-11724
▁accusato	-11725
▁collegava	-11726
▁aggiungere	-11727
▁conosciute	-11728
▁ricostruire	-11729
▁letteralmente	-11730
bul	-11731
ets	-11732
wan	-11733
gersi	-11734
gnava	-11735
gliati	-11736
▁meccanismi	-11737
eto	-11738
siana	-11739
▁Alan	-11740
▁Meri	-11741
▁Festa	-11742
▁Roger	-11743
▁quote	-11744
▁feudali	-11745
▁tornato	-11746
▁esistere	-11747
▁cellulare	-11748
▁Testamento	-11749
▁consentono	-11750
▁$	-11751
mil	-11752
▁44	-11753
bour	-11754
▁Luci	-11755
▁1945,	-11756
▁omogene	-11757
▁tredici	-11758
▁quotidiana	-11759
out	-11760
▁hi	-11761
inqu	-11762
teni	-11763
diche	-11764
tteri	-11765
▁Gand	-11766
zzetta	-11767
▁chiude	-11768
▁sbarco	-11769
▁guardie	-11770
altopiano	-11771
▁pomeriggio	-11772
▁finanziaria	-11773
pul	-11774
sone	-11775
polis	-11776
▁Mara	-11777
▁Real	-11778
▁2000.	-11779
▁accus	-11780
feriche	-11781
▁esauri	-11782
▁compiti	-11783
▁devasta	-11784
▁tessuti	-11785
▁iniziano	-11786
▁protetto	-11787
▁progettata	-11788
lé	-11789
asi	-11790
-201	-11791
fato	-11792
▁araba	-11793
▁bocca	-11794
▁italo	-11795
▁fluido	-11796
▁Ruggero	-11797
▁frances	-11798
▁legioni	-11799
▁costretta	-11800
▁vettoriale	-11801
omme	-11802
▁dedu	-11803
▁correre	-11804
▁giocato	-11805
▁rientrò	-11806
▁separate	-11807
▁conservano	-11808
▁caratterizzate	-11809
rei	-11810
▁Zu	-11811
▁1848	-11812
▁Adam	-11813
▁asci	-11814
▁puro	-11815
▁scal	-11816
anubio	-11817
▁seria	-11818
impegno	-11819
mologia	-11820
▁adatto	-11821
▁piatto	-11822
▁radiof	-11823
adozione	-11824
▁benefici	-11825
▁candidati	-11826
▁coinvolti	-11827
▁polemiche	-11828
▁riportano	-11829
▁favorevoli	-11830
▁largamente	-11831
▁generazioni	-11832
▁Ame	-11833
edono	-11834
▁uniti	-11835
▁femmine	-11836
▁inviare	-11837
▁mattoni	-11838
▁concessa	-11839
▁assegnati	-11840
▁ritengono	-11841
▁consigliere	-11842
▁contrastare	-11843
▁presentazione	-11844
ines	-11845
nera	-11846
sorio	-11847
▁Kiev	-11848
▁foce	-11849
▁mala	-11850
▁vinta	-11851
andiera	-11852
▁scopre	-11853
▁impresa	-11854
▁Agostino	-11855
▁liberale	-11856
▁luminosa	-11857
eroe	-11858
gnos	-11859
milia	-11860
▁Chiara	-11861
▁pregio	-11862
▁talento	-11863
▁abbandono	-11864
▁dipendenza	-11865
▁sfruttando	-11866
""	-11867
▁br	-11868
▁sur	-11869
esimo	-11870
▁mosa	-11871
▁poca	-11872
prendo	-11873
▁Lecco	-11874
formula	-11875
▁Nicolò	-11876
▁decimo	-11877
▁online	-11878
▁sedici	-11879
▁impiego	-11880
polazione	-11881
▁esponente	-11882
▁Barbarossa	-11883
▁operazione	-11884
fficientemente	-11885
-10	-11886
▁65	-11887
Auto	-11888
curo	-11889
orth	-11890
teca	-11891
▁seta	-11892
kistan	-11893
▁rimon	-11894
▁sesta	-11895
ggianti	-11896
▁Colombo	-11897
▁conting	-11898
▁siciliano	-11899
▁55	-11900
arta	-11901
▁Fol	-11902
▁1992,	-11903
▁armato	-11904
▁cannoni	-11905
▁deputato	-11906
▁marchesi	-11907
▁apparente	-11908
▁efficiente	-11909
▁sostenendo	-11910
▁stagionale	-11911
▁ob	-11912
essò	-11913
aperto	-11914
conomi	-11915
▁Steve	-11916
▁edili	-11917
▁penta	-11918
▁reagi	-11919
▁grazia	-11920
▁niente	-11921
▁martire	-11922
▁moltiplica	-11923
▁rinunciare	-11924
▁intellettuale	-11925
UE	-11926
Via	-11927
quo	-11928
▁Io	-11929
▁(12	-11930
edale	-11931
▁chiari	-11932
▁strisce	-11933
▁editrice	-11934
▁dirigenti	-11935
▁rientrare	-11936
▁comprensione	-11937
▁qualificazione	-11938
hen	-11939
▁(«	-11940
▁raro	-11941
ennedy	-11942
▁intre	-11943
▁catene	-11944
▁lungom	-11945
▁assorbi	-11946
▁missili	-11947
▁preciso	-11948
▁coincide	-11949
▁dettaglio	-11950
▁eliminare	-11951
▁sottoscri	-11952
▁conquistata	-11953
▁costringendo	-11954
CH	-11955
aere	-11956
fora	-11957
inno	-11958
ulle	-11959
▁Arm	-11960
▁bas	-11961
▁Moto	-11962
▁nodi	-11963
gevano	-11964
▁Milan	-11965
▁rinoma	-11966
▁Municip	-11967
▁chiesto	-11968
▁deserto	-11969
▁diresse	-11970
▁ampliata	-11971
▁norvegese	-11972
▁discendente	-11973
▁collaboratori	-11974
uth	-11975
garia	-11976
▁Goti	-11977
▁logi	-11978
▁vasti	-11979
▁Tevere	-11980
▁deboli	-11981
▁oscilla	-11982
▁incendio	-11983
▁psicologia	-11984
▁annualmente	-11985
▁depressione	-11986
-8	-11987
ía	-11988
zen	-11989
kien	-11990
▁eri	-11991
▁Morì	-11992
▁Sera	-11993
estino	-11994
▁Comple	-11995
▁elimin	-11996
▁esilio	-11997
▁rileva	-11998
▁Danubio	-11999
▁transito	-12000
inati	-12001
letti	-12002
▁arru	-12003
▁lune	-12004
manico	-12005
▁1980,	-12006
▁raddo	-12007
▁autobus	-12008
▁battuta	-12009
▁coperto	-12010
▁decisivo	-12011
▁Castiglione	-12012
▁responsabili	-12013
Est	-12014
trà	-12015
mura	-12016
▁Aree	-12017
▁nodo	-12018
resero	-12019
▁Padre	-12020
▁infor	-12021
▁nonno	-12022
▁Cucina	-12023
▁cadere	-12024
▁civica	-12025
▁guarni	-12026
▁artista	-12027
▁massimi	-12028
sticamente	-12029
▁calcolare	-12030
▁astronauti	-12031
▁contenenti	-12032
▁processore	-12033
▁repertorio	-12034
▁circostanze	-12035
OR	-12036
Tu	-12037
oss	-12038
inchi	-12039
cesima	-12040
▁Ginevra	-12041
▁sottile	-12042
▁stesura	-12043
▁Champions	-12044
▁assumendo	-12045
▁socialisti	-12046
▁soprannome	-12047
▁britanniche	-12048
▁napoleonico	-12049
▁raffigurato	-12050
▁ka	-12051
uova	-12052
▁dor	-12053
▁paio	-12054
▁papi	-12055
▁restò	-12056
▁penale	-12057
▁Partico	-12058
▁crimina	-12059
▁interru	-12060
▁lettore	-12061
▁tenente	-12062
▁confermò	-12063
▁periferia	-12064
▁istruzione	-12065
▁principessa	-12066
▁associazione	-12067
_13	-12068
▁68	-12069
cena	-12070
cqua	-12071
▁oce	-12072
inesi	-12073
▁1915	-12074
▁1931	-12075
▁Schi	-12076
▁sinc	-12077
▁vere	-12078
▁chiud	-12079
▁conson	-12080
▁figlie	-12081
▁testata	-12082
▁sculture	-12083
▁costituite	-12084
▁naturalmente	-12085
TA	-12086
▁Ur	-12087
▁Wolf	-12088
▁diso	-12089
cquero	-12090
▁formò	-12091
▁Massimi	-12092
▁Trinità	-12093
▁esposta	-12094
▁Principe	-12095
animazione	-12096
▁difensiva	-12097
▁aggiungendo	-12098
▁distinguono	-12099
any	-12100
cie	-12101
ket	-12102
doni	-12103
arche	-12104
ffite	-12105
ystem	-12106
▁Long	-12107
▁gall	-12108
▁spon	-12109
▁Brabham	-12110
▁ingenti	-12111
▁trionfo	-12112
▁petrolio	-12113
▁mammiferi	-12114
▁Principato	-12115
▁temporaneamente	-12116
CD	-12117
bury	-12118
port	-12119
tish	-12120
▁bur	-12121
vvero	-12122
eserci	-12123
▁messe	-12124
▁vigne	-12125
interro	-12126
▁libere	-12127
▁sequenze	-12128
▁aristocra	-12129
▁spontanea	-12130
▁professione	-12131
urò	-12132
▁mila	-12133
Oceano	-12134
tativo	-12135
▁Garda	-12136
▁longi	-12137
▁Giusti	-12138
▁casale	-12139
liazione	-12140
▁Mondiali	-12141
▁Popolare	-12142
▁cervello	-12143
presidente	-12144
▁vocazione	-12145
▁corruzione	-12146
▁incaricato	-12147
▁prevalenza	-12148
▁protestanti	-12149
▁collocazione	-12150
çois	-12151
carlo	-12152
field	-12153
▁1999,	-12154
ciarono	-12155
goslavia	-12156
▁anarchi	-12157
▁arbitra	-12158
▁documentario	-12159
Jo	-12160
US	-12161
erdì	-12162
mero	-12163
Monte	-12164
▁fune	-12165
▁sape	-12166
angeli	-12167
▁Fiume	-12168
▁affidò	-12169
▁opposi	-12170
▁variare	-12171
▁eseguiti	-12172
guaglianza	-12173
ek	-12174
sil	-12175
▁BM	-12176
bare	-12177
oper	-12178
▁Scor	-12179
ominata	-12180
▁citare	-12181
▁ottimo	-12182
▁Treviso	-12183
▁esposto	-12184
▁Castiglia	-12185
▁viceversa	-12186
At	-12187
ckey	-12188
strò	-12189
▁fur	-12190
ttero	-12191
▁1997,	-12192
▁trent	-12193
▁supple	-12194
▁Brianza	-12195
▁Laffite	-12196
▁Spirito	-12197
▁collegate	-12198
▁documentata	-12199
▁destinazione	-12200
phy	-12201
alge	-12202
atle	-12203
▁Cano	-12204
▁Circa	-12205
▁Latte	-12206
▁Opere	-12207
▁lento	-12208
▁intanto	-12209
▁intenso	-12210
▁matrici	-12211
▁musiche	-12212
▁situate	-12213
educazione	-12214
▁televisive	-12215
▁organizzate	-12216
▁osservazione	-12217
gle	-12218
laro	-12219
ming	-12220
drico	-12221
▁Qual	-12222
damente	-12223
zzatore	-12224
▁restri	-12225
▁Camillo	-12226
▁Tolkien	-12227
▁prepara	-12228
▁prossimo	-12229
▁terminata	-12230
▁trasferita	-12231
▁preesistente	-12232
CC	-12233
ED	-12234
buti	-12235
kins	-12236
▁174	-12237
Ameri	-12238
elico	-12239
▁affa	-12240
▁Amiga	-12241
▁avvol	-12242
▁pitto	-12243
▁splen	-12244
▁possie	-12245
▁Colonia	-12246
▁Patrick	-12247
▁modella	-12248
esplosione	-12249
intenzione	-12250
▁informazione	-12251
affi	-12252
ansa	-12253
▁She	-12254
natura	-12255
pressi	-12256
ronimo	-12257
▁Farnese	-12258
▁costruì	-12259
▁veneziano	-12260
▁ribellione	-12261
▁rappresentanza	-12262
▁Mira	-12263
▁esib	-12264
▁dolci	-12265
▁poema	-12266
▁datata	-12267
▁rinfor	-12268
▁grafico	-12269
▁tradotto	-12270
▁contrasti	-12271
▁decadenza	-12272
▁difensivo	-12273
▁by	-12274
pico	-12275
▁bea	-12276
curio	-12277
▁Berna	-12278
▁catali	-12279
▁errone	-12280
▁dovesse	-12281
▁Leopoldo	-12282
▁derivano	-12283
▁progressiva	-12284
seo	-12285
▁kg	-12286
diana	-12287
▁1500	-12288
▁Terzo	-12289
▁folla	-12290
▁perpet	-12291
▁sabbia	-12292
▁Costitu	-12293
▁campane	-12294
▁acquisito	-12295
▁candidatura	-12296
▁procedimento	-12297
2),	-12298
imb	-12299
▁"(	-12300
Angiò	-12301
▁Juan	-12302
Asburgo	-12303
▁Pasqua	-12304
▁derivate	-12305
▁simmetria	-12306
Tri	-12307
▁1900	-12308
▁Temp	-12309
▁Sasso	-12310
investi	-12311
▁Gemella	-12312
▁seguaci	-12313
▁aggressi	-12314
▁riservato	-12315
▁riflessione	-12316
▁Oro	-12317
▁Navi	-12318
▁Vara	-12319
ettori	-12320
▁educa	-12321
obbligo	-12322
vacchia	-12323
▁Defini	-12324
▁Invece	-12325
▁consen	-12326
▁Kennedy	-12327
▁israeli	-12328
▁scontra	-12329
▁riflette	-12330
▁cristalli	-12331
▁competenze	-12332
▁rispettivi	-12333
Fa	-12334
sino	-12335
▁Reale	-12336
▁ginna	-12337
▁legali	-12338
▁pirami	-12339
▁interval	-12340
▁prefetto	-12341
▁proviene	-12342
▁giovanili	-12343
▁intratten	-12344
IV	-12345
bata	-12346
vena	-12347
▁razza	-12348
cimento	-12349
▁Contin	-12350
▁botani	-12351
▁protra	-12352
▁sabato	-12353
▁alleate	-12354
▁inevita	-12355
▁maschio	-12356
▁poetica	-12357
▁variano	-12358
centeschi	-12359
offensiva	-12360
▁qualcuno	-12361
▁registri	-12362
▁spessore	-12363
▁terminato	-12364
▁assistente	-12365
▁competenza	-12366
4)	-12367
▁--	-12368
▁PCI	-12369
▁asi	-12370
ppola	-12371
▁Visi	-12372
▁feli	-12373
▁2018,	-12374
▁Spezia	-12375
▁valido	-12376
▁Scienze	-12377
▁friulano	-12378
▁tematiche	-12379
▁finlandese	-12380
▁pellegrini	-12381
▁interessata	-12382
▁caratteristici	-12383
Ex	-12384
unk	-12385
witz	-12386
▁Tan	-12387
anime	-12388
mance	-12389
▁Colu	-12390
▁diss	-12391
▁Cuneo	-12392
▁Harry	-12393
▁batti	-12394
▁disce	-12395
▁Diocle	-12396
▁Nelson	-12397
▁mostrò	-12398
▁incluse	-12399
▁depositi	-12400
▁verificò	-12401
▁descrisse	-12402
ordinamento	-12403
▁artificiali	-12404
▁superficiale	-12405
▁assolutamente	-12406
ecc	-12407
zar	-12408
▁56	-12409
allu	-12410
▁110	-12411
▁700	-12412
andro	-12413
onari	-12414
sette	-12415
▁irra	-12416
▁accia	-12417
▁dubbi	-12418
▁Abruzzo	-12419
▁difenso	-12420
emissione	-12421
▁circuiti	-12422
▁gerarchi	-12423
▁indicati	-12424
▁nacquero	-12425
▁emissione	-12426
▁massiccia	-12427
▁riconosce	-12428
▁pienamente	-12429
▁presumibilmente	-12430
hl	-12431
try	-12432
loni	-12433
nome	-12434
▁spl	-12435
gnoli	-12436
▁1917	-12437
▁elli	-12438
▁Trama	-12439
▁dicia	-12440
▁manto	-12441
▁mercati	-12442
▁chiunque	-12443
▁occupare	-12444
▁pilastri	-12445
▁specchio	-12446
▁vincitori	-12447
▁settimanale	-12448
hir	-12449
even	-12450
▁Sir	-12451
montesi	-12452
▁colpita	-12453
▁radicali	-12454
▁strategico	-12455
▁appassionati	-12456
oru	-12457
bico	-12458
ppen	-12459
▁125	-12460
▁156	-12461
▁mac	-12462
▁Evan	-12463
▁Ivan	-12464
▁leva	-12465
▁Legen	-12466
▁Missi	-12467
▁dialogo	-12468
▁ordinato	-12469
▁ritornare	-12470
▁riguardano	-12471
▁complessivo	-12472
▁stabilirono	-12473
New	-12474
▁Kh	-12475
goti	-12476
▁vel	-12477
▁2026	-12478
▁gode	-12479
▁Greci	-12480
▁Henri	-12481
▁apparire	-12482
▁migliora	-12483
rendimento	-12484
▁americane	-12485
▁operatori	-12486
▁sensibile	-12487
▁altrettanto	-12488
rol	-12489
▁Wo	-12490
▁151	-12491
▁153	-12492
Archi	-12493
atten	-12494
tenne	-12495
▁Dato	-12496
sinone	-12497
tennio	-12498
▁supporta	-12499
▁svariati	-12500
▁verranno	-12501
▁copertina	-12502
▁sconfitti	-12503
zò	-12504
_20	-12505
pli	-12506
India	-12507
elica	-12508
▁Cosenza	-12509
▁manovra	-12510
▁influenz	-12511
▁trattative	-12512
▁pubblicamente	-12513
veno	-12514
ladel	-12515
▁1994,	-12516
▁belga	-12517
▁ruote	-12518
▁tarda	-12519
spedale	-12520
▁Amedeo	-12521
▁Boston	-12522
▁grigio	-12523
▁pronto	-12524
▁Accanto	-12525
▁aggiudi	-12526
▁realmente	-12527
gis	-12528
uori	-12529
▁cime	-12530
▁enzi	-12531
▁geni	-12532
▁Parro	-12533
▁motto	-12534
▁infort	-12535
▁podestà	-12536
▁organizzò	-12537
interfaccia	-12538
▁Bernardino	-12539
▁Jugoslavia	-12540
▁linguistico	-12541
▁celebrazione	-12542
Oli	-12543
▁176	-12544
▁GNU	-12545
▁Sam	-12546
▁show	-12547
▁matri	-12548
impatto	-12549
▁Arezzo	-12550
▁giunti	-12551
▁mattino	-12552
▁stimato	-12553
▁trovati	-12554
▁geografiche	-12555
▁numerazione	-12556
▁benz	-12557
▁deco	-12558
oceano	-12559
▁pover	-12560
▁targa	-12561
micizia	-12562
ttedrale	-12563
▁Beatrice	-12564
▁alleanza	-12565
▁decorato	-12566
▁riuscire	-12567
▁tipologie	-12568
▁principato	-12569
▁scienziato	-12570
affermazione	-12571
▁investimenti	-12572
citi	-12573
ospi	-12574
Inter	-12575
guono	-12576
▁(190	-12577
▁ampi	-12578
▁1993,	-12579
▁Pisto	-12580
▁aggra	-12581
▁giaci	-12582
▁Benché	-12583
▁latini	-12584
▁ammassi	-12585
▁stretti	-12586
▁Cristina	-12587
▁prendono	-12588
▁rivelato	-12589
▁Etimologia	-12590
▁istituzionale	-12591
▁Zi	-12592
rina	-12593
▁basate	-12594
▁vedono	-12595
▁vitale	-12596
▁galatti	-12597
▁separata	-12598
▁duramente	-12599
▁procedere	-12600
▁riconobbe	-12601
▁relatività	-12602
▁Vin	-12603
▁sbo	-12604
▁Arte	-12605
ovvero	-12606
▁Genti	-12607
▁Music	-12608
▁denti	-12609
gionali	-12610
▁analogo	-12611
▁operare	-12612
▁ridotte	-12613
▁Galleria	-12614
▁sentieri	-12615
▁dirigente	-12616
▁rinascita	-12617
▁sacerdoti	-12618
▁spirituali	-12619
OP	-12620
pota	-12621
▁Ker	-12622
miano	-12623
▁divul	-12624
formance	-12625
▁autobio	-12626
▁vendere	-12627
▁progresso	-12628
lisse	-12629
▁1815	-12630
▁Arri	-12631
▁Polo	-12632
▁Sesto	-12633
▁acidi	-12634
▁assum	-12635
▁presu	-12636
quattro	-12637
▁Istitu	-12638
▁Bad	-12639
▁Gru	-12640
▁insu	-12641
▁pura	-12642
estina	-12643
▁Utili	-12644
▁rossi	-12645
cezione	-12646
valente	-12647
▁nastro	-12648
eratrice	-12649
▁vittori	-12650
▁position	-12651
▁ricoperto	-12652
ön	-12653
dem	-12654
▁46	-12655
rgli	-12656
▁Fir	-12657
▁Ten	-12658
▁aran	-12659
▁sati	-12660
▁preli	-12661
▁elenco	-12662
▁ferito	-12663
▁ideato	-12664
▁splendo	-12665
▁cessione	-12666
▁evidenza	-12667
▁scendere	-12668
▁sottomar	-12669
dentemente	-12670
▁disputare	-12671
▁superando	-12672
▁completare	-12673
▁marchesato	-12674
▁compromesso	-12675
solo	-12676
▁Gla	-12677
▁Rin	-12678
esclu	-12679
▁sapi	-12680
▁stro	-12681
▁tono	-12682
dalena	-12683
gnanti	-12684
venuto	-12685
▁Madre	-12686
▁assor	-12687
▁soldi	-12688
▁Racing	-12689
▁parchi	-12690
▁lontana	-12691
▁spiagge	-12692
▁supergi	-12693
▁chimiche	-12694
▁Institute	-12695
▁pellicole	-12696
▁ovviamente	-12697
▁trasmissioni	-12698
ëv	-12699
▁GT	-12700
Cast	-12701
ceto	-12702
mmer	-12703
annes	-12704
resco	-12705
▁Mike	-12706
▁rabb	-12707
enaria	-12708
▁offrì	-12709
▁sacre	-12710
arresto	-12711
▁inviati	-12712
▁ritardo	-12713
▁aggiunte	-12714
▁generare	-12715
▁fabbriche	-12716
▁riportare	-12717
▁riconosciuti	-12718
cusa	-12719
fatto	-12720
unzio	-12721
▁Port	-12722
▁cane	-12723
verino	-12724
▁cella	-12725
▁frati	-12726
▁gesto	-12727
▁mossa	-12728
▁Venere	-12729
▁chiavi	-12730
▁Einstein	-12731
soprattutto	-12732
▁secondario	-12733
▁49	-12734
▁158	-12735
cesse	-12736
▁Emer	-12737
▁Jane	-12738
▁Trib	-12739
▁inco	-12740
ffisso	-12741
immedia	-12742
inalità	-12743
sistema	-12744
▁allievi	-12745
▁duemila	-12746
▁arrivano	-12747
▁imponente	-12748
▁Gemellaggi	-12749
▁concorrenza	-12750
▁trasferirsi	-12751
Gio	-12752
tron	-12753
▁PSI	-12754
erava	-12755
onsor	-12756
▁idra	-12757
ellano	-12758
▁netto	-12759
▁vario	-12760
iniscono	-12761
mistizio	-12762
▁Carmine	-12763
▁allievo	-12764
▁mancano	-12765
▁margini	-12766
arcipelago	-12767
▁scomparso	-12768
▁sconfisse	-12769
▁quattordici	-12770
▁Doria	-12771
▁Romeo	-12772
▁liceo	-12773
▁silla	-12774
▁chiamò	-12775
▁rigido	-12776
▁appunta	-12777
▁registro	-12778
▁scozzese	-12779
pti	-12780
minati	-12781
▁tassa	-12782
▁girare	-12783
ellativo	-12784
▁chimici	-12785
▁subisce	-12786
▁Giustini	-12787
▁visitare	-12788
▁cortometra	-12789
▁distribuiti	-12790
▁liberamente	-12791
▁straordinaria	-12792
.»	-12793
dan	-12794
pani	-12795
▁1910	-12796
▁Bang	-12797
▁cercato	-12798
▁insegui	-12799
▁miscela	-12800
▁sorpren	-12801
osessuali	-12802
▁Contempo	-12803
▁orbitale	-12804
▁soggetta	-12805
▁altamente	-12806
▁elettrici	-12807
▁rinvenute	-12808
▁Resistenza	-12809
▁documentato	-12810
-7	-12811
IO	-12812
zana	-12813
ciate	-12814
▁Dick	-12815
▁Kong	-12816
▁nevi	-12817
▁2004.	-12818
▁Flori	-12819
▁mezza	-12820
▁fattura	-12821
▁parenti	-12822
esercizio	-12823
▁immigrati	-12824
▁religioni	-12825
▁considerava	-12826
▁municipalità	-12827
▁proporzionale	-12828
EG	-12829
▁wi	-12830
scal	-12831
sive	-12832
olica	-12833
▁Franz	-12834
▁buone	-12835
▁verdi	-12836
▁Stadio	-12837
▁consta	-12838
▁isotopi	-12839
▁studiato	-12840
▁consistenti	-12841
fru	-12842
rle	-12843
▁1908	-12844
dameri	-12845
indiri	-12846
▁ballo	-12847
▁domes	-12848
▁morta	-12849
mentati	-12850
▁Padana	-12851
▁studiò	-12852
▁macchia	-12853
▁Entrambi	-12854
▁Gabriele	-12855
▁decisiva	-12856
▁giuridico	-12857
artigianato	-12858
▁individuali	-12859
▁celebrazioni	-12860
-9	-12861
8%	-12862
tras	-12863
▁bom	-12864
▁elo	-12865
▁lag	-12866
▁new	-12867
▁cemento	-12868
▁raffred	-12869
▁sguardo	-12870
▁pallavolo	-12871
▁incontrare	-12872
▁narrazione	-12873
▁Castelnuovo	-12874
▁chitarrista	-12875
▁Distribuzione	-12876
▁Č	-12877
bati	-12878
cast	-12879
fono	-12880
ving	-12881
colli	-12882
▁1970,	-12883
▁Lecce	-12884
▁Terre	-12885
▁conno	-12886
▁netta	-12887
entando	-12888
▁freddi	-12889
▁indice	-12890
▁offerto	-12891
▁riferito	-12892
▁insegnamenti	-12893
▁completamento	-12894
pes	-12895
▁Cop	-12896
▁Res	-12897
▁ela	-12898
▁sten	-12899
ditori	-12900
matico	-12901
▁appli	-12902
▁magia	-12903
▁Domini	-12904
▁aperte	-12905
▁funera	-12906
▁inteso	-12907
▁riposo	-12908
▁subire	-12909
umerevoli	-12910
▁commissi	-12911
▁ottomano	-12912
▁collettivo	-12913
▁sviluppate	-12914
▁svolgimento	-12915
▁Classificazione	-12916
4%	-12917
▁Cli	-12918
▁Dun	-12919
▁Les	-12920
▁Mus	-12921
cetta	-12922
zzolo	-12923
▁Atto	-12924
▁care	-12925
▁1996,	-12926
▁Croci	-12927
▁isola	-12928
Interna	-12929
rignano	-12930
▁solista	-12931
▁teorico	-12932
▁Numerosi	-12933
▁hardware	-12934
▁prigione	-12935
▁reliquie	-12936
▁festività	-12937
▁Confederazione	-12938
▁sis	-12939
lusso	-12940
▁Free	-12941
▁offi	-12942
aristo	-12943
utando	-12944
▁rimar	-12945
incirca	-12946
▁danese	-12947
▁impone	-12948
▁scoppi	-12949
▁consuma	-12950
▁Stazione	-12951
▁ritratti	-12952
▁repubblicana	-12953
ern	-12954
lay	-12955
crate	-12956
niche	-12957
▁nana	-12958
▁pota	-12959
ccioli	-12960
ration	-12961
▁episco	-12962
▁evangeli	-12963
▁totalità	-12964
▁intrapren	-12965
▁trasformò	-12966
▁ungherese	-12967
▁convenzione	-12968
mara	-12969
mont	-12970
▁Clo	-12971
▁Male	-12972
▁ibri	-12973
▁1991,	-12974
▁Trasp	-12975
▁dovrà	-12976
zionate	-12977
▁suffisso	-12978
▁Frosinone	-12979
▁iscrizioni	-12980
▁rispettive	-12981
cade	-12982
▁isp	-12983
tenze	-12984
▁capaci	-12985
▁minimi	-12986
▁Jackson	-12987
▁Society	-12988
▁barocca	-12989
▁offrire	-12990
▁razionale	-12991
▁registrati	-12992
▁Association	-12993
yne	-12994
arto	-12995
geri	-12996
▁165	-12997
▁apo	-12998
cicle	-12999
inghe	-13000
vania	-13001
▁onora	-13002
▁divino	-13003
▁rigore	-13004
▁censura	-13005
▁coperta	-13006
▁segreti	-13007
▁arrivato	-13008
▁sessuali	-13009
▁Diocleziano	-13010
▁partecipano	-13011
7%	-13012
▁MS	-13013
▁Sira	-13014
terpri	-13015
▁Capua	-13016
▁Hanno	-13017
▁ferra	-13018
▁tramp	-13019
▁Sangro	-13020
▁sparse	-13021
equilibrio	-13022
▁estendeva	-13023
▁redazione	-13024
▁rappresentò	-13025
▁sospensione	-13026
ng	-13027
ary	-13028
alde	-13029
isen	-13030
orgo	-13031
pria	-13032
▁Plu	-13033
geria	-13034
▁1797	-13035
▁back	-13036
▁timp	-13037
varese	-13038
▁Altra	-13039
▁abita	-13040
▁gratu	-13041
▁Pompeo	-13042
▁vedova	-13043
▁avviato	-13044
▁positivi	-13045
estrazione	-13046
▁aggiudica	-13047
▁confusione	-13048
▁consecutivi	-13049
▁archeologiche	-13050
ppy	-13051
▁41	-13052
loca	-13053
Santa	-13054
▁serp	-13055
▁1995,	-13056
▁Camer	-13057
▁Caser	-13058
▁Petra	-13059
▁sorpa	-13060
editore	-13061
▁Urbano	-13062
▁concomi	-13063
▁consuetud	-13064
▁legislativo	-13065
▁orizzontale	-13066
Be	-13067
Ul	-13068
eros	-13069
▁Mul	-13070
▁borb	-13071
▁Colli	-13072
▁Simon	-13073
▁doppi	-13074
▁sorto	-13075
binieri	-13076
▁Basket	-13077
▁giusto	-13078
▁assedio	-13079
▁casuale	-13080
▁giudici	-13081
▁termica	-13082
▁posteriori	-13083
▁Probabilmente	-13084
garo	-13085
pati	-13086
voso	-13087
verde	-13088
▁sorve	-13089
▁Tirolo	-13090
▁conden	-13091
▁fazioni	-13092
▁tenendo	-13093
▁olimpica	-13094
▁soffitto	-13095
▁letterarie	-13096
▁riconoscimenti	-13097
Io	-13098
▁1861	-13099
▁Camb	-13100
▁Etru	-13101
▁1998,	-13102
▁Piave	-13103
elevata	-13104
mandosi	-13105
▁rivali	-13106
▁dirette	-13107
▁produsse	-13108
▁trilogia	-13109
▁cavaliere	-13110
▁patriarca	-13111
▁prototipo	-13112
▁Cristoforo	-13113
già	-13114
▁Sho	-13115
▁Berg	-13116
▁paga	-13117
▁sita	-13118
▁Howard	-13119
▁Wilson	-13120
▁chirur	-13121
American	-13122
▁perduto	-13123
▁tessile	-13124
▁militante	-13125
▁verificare	-13126
▁→	-13127
rest	-13128
▁149	-13129
condu	-13130
scevi	-13131
▁Bara	-13132
▁Mann	-13133
▁Pesa	-13134
annata	-13135
▁fiore	-13136
▁emigra	-13137
▁sodali	-13138
indagine	-13139
▁promosse	-13140
▁riorgani	-13141
▁contenuta	-13142
▁abbondanti	-13143
▁democrazia	-13144
▁urbanistico	-13145
▁atteggiamento	-13146
▁festeggiamenti	-13147
▁88	-13148
dida	-13149
▁Matt	-13150
▁scalo	-13151
tenario	-13152
▁Cascina	-13153
▁Costrui	-13154
▁disposto	-13155
ATO	-13156
avvi	-13157
▁155	-13158
▁sfa	-13159
ensis	-13160
▁eman	-13161
strong	-13162
▁socie	-13163
▁Marocco	-13164
▁Conserva	-13165
▁decorata	-13166
▁associati	-13167
▁francobol	-13168
▁indirizzi	-13169
sionalmente	-13170
▁sentimenti	-13171
ark	-13172
▁Sui	-13173
▁Tai	-13174
▁nono	-13175
▁Svilu	-13176
▁barca	-13177
▁viale	-13178
assalto	-13179
▁Imperia	-13180
▁entrate	-13181
▁costanti	-13182
▁conferito	-13183
▁splendore	-13184
▁proiezione	-13185
▁provocando	-13186
▁colonizzazione	-13187
▁(,	-13188
alba	-13189
erva	-13190
parto	-13191
savia	-13192
▁abru	-13193
esilio	-13194
▁Venti	-13195
▁Island	-13196
▁piombo	-13197
▁offerte	-13198
▁settima	-13199
▁dialetta	-13200
▁sciopero	-13201
elaborazione	-13202
▁raffiguranti	-13203
▁registrazioni	-13204
"»	-13205
urce	-13206
▁173	-13207
▁eco	-13208
▁2020,	-13209
▁Vespa	-13210
▁cogni	-13211
▁tocca	-13212
▁Vescovo	-13213
▁finanzi	-13214
▁pascoli	-13215
▁promessa	-13216
▁adiacente	-13217
▁affermare	-13218
▁argomento	-13219
▁insegnante	-13220
▁testamento	-13221
▁distruggere	-13222
▁intervenire	-13223
▁accompagnata	-13224
▁interpretare	-13225
2%	-13226
Men	-13227
wig	-13228
▁Fun	-13229
▁Hil	-13230
▁pne	-13231
ttoli	-13232
▁sigi	-13233
ccando	-13234
pedali	-13235
tretto	-13236
▁Lenin	-13237
▁basti	-13238
▁sceno	-13239
cchetta	-13240
▁monaco	-13241
▁imposte	-13242
▁parlano	-13243
mentazioni	-13244
▁riservata	-13245
▁editoriale	-13246
▁funzionale	-13247
▁ecclesiastici	-13248
8)	-13249
Cro	-13250
Don	-13251
ars	-13252
▁he	-13253
▁Bir	-13254
incor	-13255
▁José	-13256
▁loco	-13257
▁rele	-13258
gonese	-13259
▁conflu	-13260
▁riprop	-13261
▁soldato	-13262
▁tentato	-13263
▁Virginia	-13264
▁restanti	-13265
▁meccanico	-13266
▁attraversando	-13267
'.	-13268
dorf	-13269
esito	-13270
ttici	-13271
visti	-13272
▁Fame	-13273
▁Rela	-13274
▁seno	-13275
▁Fabio	-13276
▁Segre	-13277
▁templi	-13278
▁incendi	-13279
▁Mobilità	-13280
▁lombardo	-13281
▁paragona	-13282
▁sfuggire	-13283
▁utilizzò	-13284
▁coloniale	-13285
▁originari	-13286
6%	-13287
ttoni	-13288
▁agon	-13289
larità	-13290
▁legis	-13291
▁Luciano	-13292
▁Origina	-13293
▁carbone	-13294
▁povertà	-13295
▁adottare	-13296
▁costiere	-13297
▁cronache	-13298
▁previsti	-13299
▁citazione	-13300
▁provenienza	-13301
▁sensibilità	-13302
▁pesantemente	-13303
eco	-13304
▁ze	-13305
▁157	-13306
▁Zel	-13307
▁trai	-13308
ammira	-13309
occhio	-13310
specie	-13311
▁dieta	-13312
▁siamo	-13313
▁memorie	-13314
▁passava	-13315
▁vigilia	-13316
▁iscritti	-13317
▁leggende	-13318
▁stradali	-13319
▁sussegui	-13320
▁destinate	-13321
CP	-13322
▁ju	-13323
arli	-13324
iamo	-13325
▁Dru	-13326
▁Pic	-13327
lopiù	-13328
▁Penn	-13329
▁sara	-13330
▁Texas	-13331
▁pasta	-13332
integra	-13333
▁Figlio	-13334
sportiva	-13335
▁Galileo	-13336
▁Sicilie	-13337
▁persero	-13338
▁registi	-13339
▁Alexander	-13340
▁derivante	-13341
▁rispondere	-13342
▁attraversare	-13343
uco	-13344
rete	-13345
ride	-13346
▁164	-13347
▁May	-13348
darsi	-13349
doglio	-13350
▁abate	-13351
▁Golden	-13352
▁favorì	-13353
▁nativi	-13354
▁ognuna	-13355
▁Valentino	-13356
▁operativa	-13357
assegnazione	-13358
helm	-13359
▁Marti	-13360
▁Vladi	-13361
▁misto	-13362
▁Museum	-13363
▁negozi	-13364
zionista	-13365
▁anziani	-13366
▁offerta	-13367
▁prestito	-13368
▁separato	-13369
▁vendette	-13370
▁violento	-13371
▁Arcangelo	-13372
▁Armstrong	-13373
▁intendeva	-13374
▁spareggio	-13375
▁Conference	-13376
▁sovietiche	-13377
▁consentendo	-13378
Ara	-13379
_15	-13380
low	-13381
kovi	-13382
piti	-13383
board	-13384
trato	-13385
▁Tech	-13386
▁abbra	-13387
▁firmò	-13388
▁manager	-13389
▁vettori	-13390
▁profonde	-13391
▁individuo	-13392
▁intensità	-13393
▁grammatica	-13394
▁integrante	-13395
CI	-13396
wo	-13397
sud	-13398
▁PD	-13399
melli	-13400
ssata	-13401
▁Hunt	-13402
onario	-13403
▁secco	-13404
▁scarse	-13405
ggiatura	-13406
▁Mansell	-13407
▁autunno	-13408
▁esplora	-13409
▁habitat	-13410
▁lineari	-13411
▁chiudere	-13412
▁ministero	-13413
▁notazione	-13414
▁trasporta	-13415
▁dimostrano	-13416
ason	-13417
getto	-13418
▁diga	-13419
▁Beata	-13420
ettersi	-13421
▁Taranto	-13422
▁rimaste	-13423
▁François	-13424
▁Varsavia	-13425
▁avvenire	-13426
▁manufatti	-13427
▁Santissima	-13428
▁parrocchie	-13429
▁artigianale	-13430
▁elettronico	-13431
▁43	-13432
▁Met	-13433
biano	-13434
ottica	-13435
▁deline	-13436
▁Saturno	-13437
▁montaggio	-13438
emigrazione	-13439
▁appartenenza	-13440
▁conformazione	-13441
bble	-13442
nell	-13443
rell	-13444
stie	-13445
ccome	-13446
▁Ness	-13447
ratura	-13448
▁adole	-13449
▁Romana	-13450
▁scorso	-13451
▁viveva	-13452
zionismo	-13453
▁interse	-13454
▁mentale	-13455
▁scalare	-13456
▁Compagnia	-13457
▁giuridica	-13458
▁alternative	-13459
▁trasmettere	-13460
▁classificata	-13461
▁mediterraneo	-13462
▁Gh	-13463
fani	-13464
▁Han	-13465
ziosa	-13466
▁dava	-13467
entato	-13468
franco	-13469
▁abiti	-13470
▁guari	-13471
▁riper	-13472
▁Batman	-13473
▁ambiti	-13474
▁dotate	-13475
▁maturi	-13476
▁veneta	-13477
▁fidanza	-13478
▁internet	-13479
▁pacchetto	-13480
▁risonanza	-13481
▁quotidiani	-13482
▁contemporaneo	-13483
▁straordinario	-13484
▁amministrativi	-13485
▁Cy	-13486
▁().	-13487
▁128	-13488
▁Mia	-13489
▁Può	-13490
opport	-13491
ziario	-13492
▁Gallo	-13493
▁Sacra	-13494
▁White	-13495
▁Donato	-13496
▁salire	-13497
▁sugges	-13498
▁fondare	-13499
▁formule	-13500
▁recarsi	-13501
▁inserire	-13502
▁inseriti	-13503
▁scandalo	-13504
gionamento	-13505
▁tricolore	-13506
▁conduzione	-13507
▁sopravvivenza	-13508
Ha	-13509
acca	-13510
erlo	-13511
pata	-13512
▁Dai	-13513
ferma	-13514
lotto	-13515
▁uova	-13516
ossido	-13517
▁Rieti	-13518
▁Lakers	-13519
▁Lattea	-13520
▁scompa	-13521
▁tragedia	-13522
▁approvata	-13523
▁classiche	-13524
▁determinate	-13525
▁innumerevoli	-13526
"».	-13527
_14	-13528
pan	-13529
▁Som	-13530
▁iri	-13531
▁Lord	-13532
▁Meta	-13533
▁Nerone	-13534
▁ostilità	-13535
Immacolata	-13536
▁trascorse	-13537
▁possiedono	-13538
▁ferroviarie	-13539
▁coinvolgimento	-13540
far	-13541
acco	-13542
▁154	-13543
▁1905	-13544
ggiava	-13545
▁2005.	-13546
▁2009.	-13547
▁Isola	-13548
▁Pochi	-13549
▁colui	-13550
▁fiera	-13551
▁budget	-13552
▁voluta	-13553
▁bancono	-13554
▁esposti	-13555
▁replica	-13556
▁seguiti	-13557
ingegnere	-13558
▁Paradiso	-13559
▁spiccano	-13560
▁interazioni	-13561
▁erroneamente	-13562
▁continuamente	-13563
Val	-13564
num	-13565
▁Sky	-13566
▁Suo	-13567
▁ala	-13568
▁radi	-13569
▁righe	-13570
▁archivi	-13571
▁imprigi	-13572
▁incerta	-13573
▁peccato	-13574
▁rivolto	-13575
▁consacrata	-13576
▁incontrano	-13577
ns	-13578
ete	-13579
topo	-13580
erose	-13581
sconi	-13582
▁Circ	-13583
▁cade	-13584
sserva	-13585
▁preco	-13586
▁unione	-13587
▁neanche	-13588
▁consegna	-13589
▁toponimi	-13590
▁apostolica	-13591
▁ghibellini	-13592
unificazione	-13593
▁elettronici	-13594
Er	-13595
feld	-13596
belle	-13597
coslo	-13598
▁Juli	-13599
▁augu	-13600
▁puri	-13601
cchino	-13602
▁cassa	-13603
▁lenti	-13604
▁confis	-13605
▁fuochi	-13606
▁prussi	-13607
▁svolte	-13608
▁trionf	-13609
erazioni	-13610
▁Monteca	-13611
▁potendo	-13612
▁ricondu	-13613
▁sintomi	-13614
▁sponsor	-13615
▁metaboli	-13616
invenzione	-13617
▁borghesia	-13618
▁preferito	-13619
▁sosteneva	-13620
▁fotografie	-13621
▁attribuisce	-13622
▁federazione	-13623
▁stabilmente	-13624
▁Ly	-13625
ding	-13626
▁Ero	-13627
▁Gun	-13628
colle	-13629
terbo	-13630
▁Prix	-13631
▁Susa	-13632
▁mostre	-13633
▁render	-13634
▁Decreto	-13635
▁cellula	-13636
▁serbato	-13637
rificenze	-13638
▁figurano	-13639
▁monasteri	-13640
▁introdotte	-13641
▁storiografia	-13642
boni	-13643
pora	-13644
andol	-13645
corso	-13646
trinse	-13647
▁2010.	-13648
▁degen	-13649
▁piste	-13650
▁scarso	-13651
▁sommer	-13652
▁Aurelio	-13653
▁scarica	-13654
entamento	-13655
golamento	-13656
▁Collegio	-13657
▁ampliato	-13658
▁scoprire	-13659
▁impegnati	-13660
Dis	-13661
▁159	-13662
▁169	-13663
▁bin	-13664
ombra	-13665
▁Domi	-13666
▁Final	-13667
▁Imola	-13668
▁Monda	-13669
▁potrà	-13670
▁robot	-13671
gnarono	-13672
▁Scuole	-13673
▁meravi	-13674
▁minuto	-13675
apparato	-13676
▁Fantasy	-13677
▁eredità	-13678
▁Castelli	-13679
▁perfetto	-13680
▁talmente	-13681
▁ottengono	-13682
▁innovazioni	-13683
'80	-13684
For	-13685
ceri	-13686
vara	-13687
▁Eri	-13688
▁ira	-13689
hetto	-13690
ronta	-13691
cordia	-13692
quanto	-13693
▁buddi	-13694
▁Alfred	-13695
▁naviga	-13696
▁solari	-13697
terprise	-13698
▁davvero	-13699
▁imposto	-13700
▁neppure	-13701
▁mantello	-13702
▁poterono	-13703
▁scoperti	-13704
▁riportate	-13705
▁filosofico	-13706
▁mandamento	-13707
gas	-13708
rite	-13709
▁2006.	-13710
▁Reute	-13711
▁gomme	-13712
odierno	-13713
▁finita	-13714
▁tenuti	-13715
immagina	-13716
▁fluviale	-13717
▁instaura	-13718
▁ospedali	-13719
▁riuscita	-13720
▁eliminato	-13721
▁procedure	-13722
▁mediterranea	-13723
▁considerevole	-13724
_16	-13725
ager	-13726
avan	-13727
Villa	-13728
essor	-13729
linio	-13730
▁bian	-13731
▁vass	-13732
▁Bella	-13733
▁basta	-13734
▁proli	-13735
▁Zenone	-13736
▁finora	-13737
▁greche	-13738
▁magazz	-13739
▁farmaci	-13740
▁estratto	-13741
▁sostituì	-13742
▁Reutemann	-13743
▁contratta	-13744
▁integrato	-13745
▁praticato	-13746
▁determinazione	-13747
▁Š	-13748
ish	-13749
kel	-13750
ted	-13751
▁Sull	-13752
andina	-13753
▁1976,	-13754
▁Marie	-13755
▁avviò	-13756
▁delta	-13757
▁veter	-13758
▁estivi	-13759
▁fiamme	-13760
▁marine	-13761
▁Romagna	-13762
▁conflui	-13763
▁crimini	-13764
▁divieto	-13765
▁pensato	-13766
▁sorelle	-13767
▁pazienti	-13768
▁perlopiù	-13769
▁sviluppi	-13770
▁algoritmi	-13771
▁insignito	-13772
▁ritrovato	-13773
▁laboratori	-13774
▁sottoposti	-13775
▁indicazioni	-13776
▁coltivazioni	-13777
thi	-13778
uer	-13779
▁6-	-13780
Aosta	-13781
fismo	-13782
▁Wood	-13783
▁riso	-13784
ffredo	-13785
▁2008.	-13786
▁Praga	-13787
▁verbo	-13788
▁ammino	-13789
▁uniche	-13790
▁Giovanna	-13791
▁consentì	-13792
▁troncato	-13793
▁battesimo	-13794
▁orchestra	-13795
▁abitazione	-13796
▁concludere	-13797
▁essenziali	-13798
▁ripristina	-13799
▁convinzione	-13800
▁neoclassico	-13801
▁superiorità	-13802
▁concentramento	-13803
-"	-13804
erei	-13805
sten	-13806
▁Esse	-13807
▁carbu	-13808
▁adegua	-13809
▁ligneo	-13810
▁primis	-13811
▁causata	-13812
▁concreti	-13813
▁congiura	-13814
▁interagi	-13815
▁Commodore	-13816
▁franchigia	-13817
▁suggerisce	-13818
▁tradimento	-13819
▁peculiarità	-13820
▁triangolare	-13821
Gli	-13822
Sal	-13823
pis	-13824
▁168	-13825
▁One	-13826
▁Sos	-13827
▁Web	-13828
▁pavi	-13829
algebra	-13830
▁Urbino	-13831
▁dottor	-13832
▁espand	-13833
▁impero	-13834
▁Libertà	-13835
▁Ungheria	-13836
▁registrò	-13837
▁Maddalena	-13838
▁sentimento	-13839
▁Pietroburgo	-13840
9%	-13841
Vo	-13842
_17	-13843
fel	-13844
▁Feli	-13845
▁Mach	-13846
▁fara	-13847
▁muri	-13848
zzetto	-13849
cedonia	-13850
▁crosta	-13851
▁ingran	-13852
▁medica	-13853
▁trovata	-13854
▁collegare	-13855
acquisizione	-13856
▁cooperazione	-13857
VII	-13858
ery	-13859
cciò	-13860
hara	-13861
sono	-13862
città	-13863
▁Gaio	-13864
▁impo	-13865
ticato	-13866
▁espor	-13867
▁retto	-13868
▁affasc	-13869
▁culmin	-13870
▁morali	-13871
▁teatri	-13872
ossigeno	-13873
▁Diversi	-13874
▁disputò	-13875
▁segreta	-13876
▁celebrato	-13877
▁chiedendo	-13878
▁intraprese	-13879
▁costruirono	-13880
▁riguardante	-13881
én	-13882
Ass	-13883
▁53	-13884
emer	-13885
haus	-13886
▁But	-13887
andre	-13888
perta	-13889
▁lupo	-13890
▁marx	-13891
▁padr	-13892
cciare	-13893
ghetto	-13894
▁Casta	-13895
▁Aquile	-13896
▁Daniele	-13897
▁fazione	-13898
▁collasso	-13899
▁vivevano	-13900
▁napoletano	-13901
▁controllata	-13902
Età	-13903
adi	-13904
▁unì	-13905
▁Loca	-13906
▁como	-13907
▁Colla	-13908
▁Pelle	-13909
▁Serio	-13910
▁aiuti	-13911
coltura	-13912
▁adottò	-13913
▁giusta	-13914
▁atomico	-13915
▁dignità	-13916
▁Topolino	-13917
▁decidere	-13918
▁occupati	-13919
▁secolare	-13920
▁violenti	-13921
intervallo	-13922
▁Occidente	-13923
▁biografia	-13924
run	-13925
curi	-13926
ylor	-13927
trini	-13928
▁1911	-13929
▁Enzo	-13930
▁Java	-13931
▁dono	-13932
▁folk	-13933
▁piov	-13934
riosità	-13935
incendio	-13936
▁avanzate	-13937
▁nascente	-13938
▁occupano	-13939
▁meccanici	-13940
▁parallele	-13941
▁aggiungono	-13942
▁piemontesi	-13943
▁esposizione	-13944
▁controversie	-13945
▁formulazione	-13946
bit	-13947
kan	-13948
pea	-13949
▁cada	-13950
▁core	-13951
▁donò	-13952
letter	-13953
▁corda	-13954
▁parig	-13955
▁Nacque	-13956
▁Wright	-13957
▁scheda	-13958
▁Martini	-13959
▁Sanremo	-13960
▁nozione	-13961
▁telecom	-13962
▁canonico	-13963
▁minerale	-13964
▁rilevato	-13965
▁disoccupa	-13966
▁Eccellenza	-13967
▁acquistare	-13968
▁registrata	-13969
▁stabilisce	-13970
▁attivamente	-13971
▁sostanziale	-13972
▁correttamente	-13973
▁pallacanestro	-13974
"):	-13975
)",	-13976
Una	-13977
▁145	-13978
▁Cup	-13979
▁Fle	-13980
▁Kra	-13981
aereo	-13982
dromo	-13983
tures	-13984
▁curi	-13985
▁calca	-13986
▁opini	-13987
▁quark	-13988
▁Flavio	-13989
▁critto	-13990
▁indire	-13991
▁British	-13992
▁Siracusa	-13993
▁sperimentali	-13994
9)	-13995
kor	-13996
coln	-13997
▁1805	-13998
▁1814	-13999
▁Arturo	-14000
▁Rovere	-14001
▁felice	-14002
▁indisp	-14003
▁preten	-14004
▁Corsica	-14005
▁sorgono	-14006
andamento	-14007
▁Pasquale	-14008
▁accoglie	-14009
▁affluente	-14010
▁lunghezze	-14011
▁dichiarata	-14012
▁distribuita	-14013
▁parlamentari	-14014
▁rivoluzionario	-14015
pto	-14016
arre	-14017
bbre	-14018
ordì	-14019
xford	-14020
▁Prof	-14021
gibili	-14022
▁prosa	-14023
▁compagna	-14024
▁trattare	-14025
▁trovarsi	-14026
▁governato	-14027
▁individua	-14028
RI	-14029
▁peda	-14030
ciando	-14031
▁1989,	-14032
▁fisso	-14033
gatorio	-14034
▁donato	-14035
▁flussi	-14036
▁grossi	-14037
▁emblema	-14038
▁ubicata	-14039
americani	-14040
▁catalogo	-14041
▁fiorente	-14042
▁intrinse	-14043
▁ortodossa	-14044
▁finanziari	-14045
?”	-14046
▁171	-14047
▁tun	-14048
dolfo	-14049
ppare	-14050
▁Doug	-14051
▁tubo	-14052
ghetti	-14053
▁Suddi	-14054
▁impon	-14055
▁match	-14056
▁Quello	-14057
ometriche	-14058
▁condotte	-14059
▁romanica	-14060
▁distrusse	-14061
edificazione	-14062
▁adattamento	-14063
▁circonferenza	-14064
CA	-14065
/200	-14066
mail	-14067
vore	-14068
ckter	-14069
ennis	-14070
zzina	-14071
▁Albo	-14072
▁Cima	-14073
▁Quin	-14074
▁Vico	-14075
▁star	-14076
Veneto	-14077
▁muove	-14078
▁turco	-14079
▁guelfi	-14080
▁uccise	-14081
▁richiamo	-14082
▁pavimento	-14083
▁compositori	-14084
▁considerano	-14085
▁manoscritti	-14086
MA	-14087
dé	-14088
-17	-14089
key	-14090
dopo	-14091
zine	-14092
Liber	-14093
dieri	-14094
ridge	-14095
spina	-14096
zzaro	-14097
▁Dell	-14098
▁Litu	-14099
▁Vega	-14100
ratore	-14101
▁ribal	-14102
▁rievo	-14103
▁Silver	-14104
▁Street	-14105
▁traiet	-14106
▁Rosberg	-14107
▁tennero	-14108
argomento	-14109
▁percorre	-14110
▁Scheckter	-14111
▁particolarità	-14112
▁ker	-14113
▁copi	-14114
▁Bruce	-14115
▁intui	-14116
▁pessi	-14117
▁gironi	-14118
▁pneuma	-14119
▁chiamava	-14120
▁discreto	-14121
▁sostenuta	-14122
pos	-14123
ches	-14124
wski	-14125
dello	-14126
gnosi	-14127
rossi	-14128
▁FIGC	-14129
▁Jazz	-14130
▁diag	-14131
xelles	-14132
▁Aleks	-14133
▁evolu	-14134
▁privi	-14135
animale	-14136
▁strage	-14137
▁calcare	-14138
▁circolo	-14139
▁validità	-14140
avversario	-14141
unicazioni	-14142
▁ambientato	-14143
▁introdurre	-14144
▁superstiti	-14145
integrazione	-14146
▁repubblicano	-14147
▁contribuirono	-14148
ells	-14149
gner	-14150
pres	-14151
vier	-14152
▁Scu	-14153
▁Ton	-14154
anato	-14155
▁Geor	-14156
▁Mori	-14157
▁afro	-14158
▁erba	-14159
mobile	-14160
▁1960,	-14161
▁Diego	-14162
▁Elena	-14163
▁cland	-14164
▁spesa	-14165
impossi	-14166
terebbe	-14167
Archivio	-14168
apparten	-14169
▁Indiana	-14170
▁Maritti	-14171
▁riportò	-14172
intensità	-14173
▁Politica	-14174
▁deposito	-14175
allenatore	-14176
▁fondarono	-14177
▁occidente	-14178
▁sostituendo	-14179
Fo	-14180
ject	-14181
oman	-14182
eroga	-14183
▁Brian	-14184
▁ellen	-14185
▁impar	-14186
▁sinta	-14187
candosi	-14188
▁Jacopo	-14189
▁aprire	-14190
▁Lettera	-14191
▁coopera	-14192
▁credere	-14193
▁bandiere	-14194
▁attestano	-14195
▁Cattedrale	-14196
▁Produzione	-14197
▁esistevano	-14198
▁testimoniato	-14199
URSS	-14200
uzzo	-14201
▁Ple	-14202
▁ces	-14203
etica	-14204
▁conv	-14205
▁Patre	-14206
Abbazia	-14207
deburgo	-14208
▁Olimpi	-14209
▁alline	-14210
▁flessi	-14211
▁parere	-14212
▁crociata	-14213
▁indicava	-14214
▁paziente	-14215
etimologia	-14216
▁incidenti	-14217
▁riconquis	-14218
▁processori	-14219
EL	-14220
/19	-14221
ning	-14222
vigo	-14223
mbolo	-14224
pensa	-14225
sseto	-14226
▁ente	-14227
▁fero	-14228
▁sina	-14229
cciato	-14230
ticità	-14231
▁liste	-14232
teriale	-14233
torietà	-14234
unziata	-14235
▁Miller	-14236
▁derivi	-14237
▁anglosa	-14238
▁attrice	-14239
▁imposta	-14240
▁istituì	-14241
▁trascor	-14242
orgimento	-14243
▁ispirata	-14244
▁datazione	-14245
▁eccezioni	-14246
▁pacchetti	-14247
▁continuato	-14248
▁sottoposta	-14249
_19	-14250
▁Anth	-14251
▁NATO	-14252
▁sagra	-14253
▁spopo	-14254
▁Fronte	-14255
▁decina	-14256
▁spostò	-14257
▁celtica	-14258
▁contemp	-14259
▁estremi	-14260
▁negativi	-14261
▁Atlantico	-14262
▁celebrata	-14263
▁simbolica	-14264
▁intervallo	-14265
▁dipartimenti	-14266
Bri	-14267
Tre	-14268
fati	-14269
pici	-14270
▁Vel	-14271
incro	-14272
kespe	-14273
▁Mora	-14274
▁argi	-14275
chetti	-14276
elberg	-14277
▁curve	-14278
▁rimuo	-14279
▁stand	-14280
▁vasca	-14281
▁Arnoux	-14282
▁assedi	-14283
▁Vecchia	-14284
▁fertile	-14285
▁ricorre	-14286
▁venduti	-14287
pirazione	-14288
▁abbondante	-14289
▁comunicare	-14290
▁universitari	-14291
Bar	-14292
borea	-14293
▁anfi	-14294
vicino	-14295
▁infli	-14296
▁Severo	-14297
dicesima	-14298
zionisti	-14299
▁licenze	-14300
▁tentare	-14301
etichetta	-14302
▁indeboli	-14303
▁nascosto	-14304
ammiraglio	-14305
▁adiacenti	-14306
▁Parrocchia	-14307
▁democratico	-14308
▁trasferisce	-14309
fgh	-14310
ida	-14311
azzo	-14312
bica	-14313
fone	-14314
ttar	-14315
▁11,	-14316
▁Ful	-14317
hoven	-14318
▁Mana	-14319
▁Pubb	-14320
▁Dalle	-14321
▁espli	-14322
▁rilan	-14323
▁rione	-14324
▁Common	-14325
▁piogge	-14326
▁bellico	-14327
imponente	-14328
▁illustri	-14329
▁Adriatico	-14330
▁artigiani	-14331
▁integrale	-14332
▁terremoti	-14333
▁feudatario	-14334
▁condottiero	-14335
Hi	-14336
aton	-14337
▁161	-14338
▁Asp	-14339
▁Blo	-14340
acidi	-14341
▁1870	-14342
▁1912	-14343
▁Band	-14344
▁Magn	-14345
▁Russ	-14346
▁duri	-14347
vandosi	-14348
▁ospiti	-14349
▁Lincoln	-14350
▁segnala	-14351
▁Militare	-14352
▁appoggio	-14353
▁idroelet	-14354
▁zucchero	-14355
▁riducendo	-14356
▁terribile	-14357
▁irregolare	-14358
pò	-14359
_18	-14360
raq	-14361
▁(9	-14362
▁ol	-14363
cann	-14364
▁cave	-14365
ondata	-14366
▁aeree	-14367
▁avvio	-14368
▁etero	-14369
▁tossi	-14370
▁concen	-14371
▁australi	-14372
▁gestisce	-14373
▁marziali	-14374
▁oratorio	-14375
▁previste	-14376
▁subentra	-14377
▁applicato	-14378
▁derivanti	-14379
▁incarichi	-14380
▁puramente	-14381
▁trasmessa	-14382
▁convincere	-14383
▁unitamente	-14384
uk	-14385
Can	-14386
▁RAM	-14387
accel	-14388
cherà	-14389
incar	-14390
minis	-14391
urigo	-14392
▁Sanse	-14393
▁caser	-14394
▁fasce	-14395
▁orale	-14396
▁mitolo	-14397
▁resero	-14398
ggiarono	-14399
▁acquisì	-14400
▁calabre	-14401
▁apprezza	-14402
▁convinse	-14403
▁coraggio	-14404
▁entrando	-14405
▁istituto	-14406
▁numerica	-14407
▁ininterro	-14408
NT	-14409
Sh	-14410
em	-14411
pine	-14412
▁12,	-14413
▁PIL	-14414
▁vor	-14415
drome	-14416
enice	-14417
▁Thea	-14418
▁cong	-14419
▁anticipo	-14420
▁scenario	-14421
▁elettrone	-14422
▁avversario	-14423
▁delegazione	-14424
▁imbarcazioni	-14425
▁differenziale	-14426
Th	-14427
▁(8	-14428
▁BMW	-14429
chini	-14430
worth	-14431
▁baia	-14432
▁rega	-14433
ttrici	-14434
▁Regia	-14435
▁avanz	-14436
▁inasp	-14437
▁Popolo	-14438
▁Svevia	-14439
Alessand	-14440
Corriere	-14441
▁Statuto	-14442
▁Attraverso	-14443
▁elettriche	-14444
▁accessibile	-14445
▁costituivano	-14446
cul	-14447
anum	-14448
dera	-14449
▁Abra	-14450
ccante	-14451
linata	-14452
▁Colom	-14453
▁Udine	-14454
▁asser	-14455
▁razzo	-14456
ondanza	-14457
▁svolti	-14458
▁tavolo	-14459
stronomo	-14460
▁Riviera	-14461
▁fissato	-14462
▁Manfredi	-14463
▁ricavato	-14464
▁contadina	-14465
▁batterista	-14466
▁ingegneria	-14467
▁prettamente	-14468
7)	-14469
Pri	-14470
mud	-14471
uci	-14472
-198	-14473
gora	-14474
iolo	-14475
cismo	-14476
lanta	-14477
▁Achi	-14478
▁imba	-14479
▁inqu	-14480
▁1968,	-14481
▁Fermo	-14482
▁Stone	-14483
▁inuti	-14484
▁scuro	-14485
▁casata	-14486
▁Vengono	-14487
▁Viterbo	-14488
▁leggero	-14489
▁polemica	-14490
▁fortificata	-14491
▁performance	-14492
▁repubblicani	-14493
mmy	-14494
sala	-14495
▁Alba	-14496
▁bolo	-14497
▁clan	-14498
▁fuso	-14499
▁2007.	-14500
▁2022,	-14501
▁Metro	-14502
▁degra	-14503
gentino	-14504
amicizia	-14505
▁Alfredo	-14506
▁Vennero	-14507
▁Andretti	-14508
▁facilità	-14509
▁attendere	-14510
▁catturato	-14511
▁climatica	-14512
▁industria	-14513
▁sodalizio	-14514
▁veramente	-14515
▁forniscono	-14516
▁lasciarono	-14517
▁collaborare	-14518
("	-14519
ffè	-14520
▁Vul	-14521
disse	-14522
▁Lamb	-14523
▁coma	-14524
ottavo	-14525
▁Appar	-14526
▁gloria	-14527
▁trofeo	-14528
▁Wilhelm	-14529
▁Carolina	-14530
▁eseguite	-14531
▁milanesi	-14532
▁muratura	-14533
▁perfetta	-14534
▁valutare	-14535
▁corazzata	-14536
▁consiglieri	-14537
▁corrispondono	-14538
nos	-14539
▁Hy	-14540
vane	-14541
apice	-14542
ghesi	-14543
▁Tony	-14544
alpina	-14545
▁piovo	-14546
castrum	-14547
▁assist	-14548
▁dirige	-14549
▁tesoro	-14550
▁sorsero	-14551
▁ipotizza	-14552
▁islamica	-14553
▁silenzio	-14554
▁contenute	-14555
▁criticato	-14556
▁giungendo	-14557
▁letterari	-14558
▁attribuiti	-14559
▁lungometra	-14560
▁secondarie	-14561
▁soddisfare	-14562
▁distribuite	-14563
ES	-14564
7),	-14565
rad	-14566
▁Fio	-14567
comun	-14568
▁Chri	-14569
▁Gord	-14570
▁Luni	-14571
▁erge	-14572
ettura	-14573
glieri	-14574
▁Forte	-14575
▁Messa	-14576
▁Verde	-14577
▁riscri	-14578
▁taglia	-14579
▁toller	-14580
▁turchi	-14581
▁braccia	-14582
▁fornita	-14583
▁isolato	-14584
▁Numerose	-14585
▁morirono	-14586
▁Bruxelles	-14587
▁distrutti	-14588
▁terminale	-14589
▁privilegio	-14590
++	-14591
TV	-14592
4),	-14593
uge	-14594
war	-14595
▁By	-14596
meli	-14597
▁166	-14598
▁abu	-14599
avvio	-14600
▁2011.	-14601
▁bigli	-14602
▁accede	-14603
▁sparsi	-14604
▁utente	-14605
▁disegna	-14606
▁Aquileia	-14607
▁catastro	-14608
▁contesta	-14609
▁indirizzo	-14610
1).	-14611
alf	-14612
xon	-14613
leri	-14614
▁148	-14615
incre	-14616
▁cavi	-14617
▁punk	-14618
metica	-14619
▁depre	-14620
▁galli	-14621
▁panni	-14622
▁scelti	-14623
▁superò	-14624
epidemia	-14625
▁offrono	-14626
▁database	-14627
▁dovrebbero	-14628
▁protocolli	-14629
▁provengono	-14630
▁apertamente	-14631
▁svilupparono	-14632
yu	-14633
sky	-14634
cicli	-14635
▁fall	-14636
▁Infer	-14637
▁appor	-14638
▁getta	-14639
▁vette	-14640
intelli	-14641
▁Davide	-14642
▁amante	-14643
▁decisa	-14644
▁finisce	-14645
▁Giordano	-14646
▁disposte	-14647
▁iscritto	-14648
▁assistere	-14649
▁collegano	-14650
▁barbariche	-14651
"".	-14652
▁54	-14653
dium	-14654
vidu	-14655
▁Fac	-14656
▁cus	-14657
▁cano	-14658
▁lupi	-14659
ordino	-14660
rabile	-14661
troppo	-14662
▁Intel	-14663
▁falsi	-14664
[...]
